<unk>	0
<s>	0
</s>	0
<pad>	0
<user>	0
</user>	0
<assistant>	0
</assistant>	0
<tool_call>	0
</tool_call>	0
<tool_response>	0
</tool_response>	0
<think>	0
</think>	0
<memory>	0
</memory>	0
<0x00>	0
<0x01>	0
<0x02>	0
<0x03>	0
<0x04>	0
<0x05>	0
<0x06>	0
<0x07>	0
<0x08>	0
<0x09>	0
<0x0A>	0
<0x0B>	0
<0x0C>	0
<0x0D>	0
<0x0E>	0
<0x0F>	0
<0x10>	0
<0x11>	0
<0x12>	0
<0x13>	0
<0x14>	0
<0x15>	0
<0x16>	0
<0x17>	0
<0x18>	0
<0x19>	0
<0x1A>	0
<0x1B>	0
<0x1C>	0
<0x1D>	0
<0x1E>	0
<0x1F>	0
<0x20>	0
<0x21>	0
<0x22>	0
<0x23>	0
<0x24>	0
<0x25>	0
<0x26>	0
<0x27>	0
<0x28>	0
<0x29>	0
<0x2A>	0
<0x2B>	0
<0x2C>	0
<0x2D>	0
<0x2E>	0
<0x2F>	0
<0x30>	0
<0x31>	0
<0x32>	0
<0x33>	0
<0x34>	0
<0x35>	0
<0x36>	0
<0x37>	0
<0x38>	0
<0x39>	0
<0x3A>	0
<0x3B>	0
<0x3C>	0
<0x3D>	0
<0x3E>	0
<0x3F>	0
<0x40>	0
<0x41>	0
<0x42>	0
<0x43>	0
<0x44>	0
<0x45>	0
<0x46>	0
<0x47>	0
<0x48>	0
<0x49>	0
<0x4A>	0
<0x4B>	0
<0x4C>	0
<0x4D>	0
<0x4E>	0
<0x4F>	0
<0x50>	0
<0x51>	0
<0x52>	0
<0x53>	0
<0x54>	0
<0x55>	0
<0x56>	0
<0x57>	0
<0x58>	0
<0x59>	0
<0x5A>	0
<0x5B>	0
<0x5C>	0
<0x5D>	0
<0x5E>	0
<0x5F>	0
<0x60>	0
<0x61>	0
<0x62>	0
<0x63>	0
<0x64>	0
<0x65>	0
<0x66>	0
<0x67>	0
<0x68>	0
<0x69>	0
<0x6A>	0
<0x6B>	0
<0x6C>	0
<0x6D>	0
<0x6E>	0
<0x6F>	0
<0x70>	0
<0x71>	0
<0x72>	0
<0x73>	0
<0x74>	0
<0x75>	0
<0x76>	0
<0x77>	0
<0x78>	0
<0x79>	0
<0x7A>	0
<0x7B>	0
<0x7C>	0
<0x7D>	0
<0x7E>	0
<0x7F>	0
<0x80>	0
<0x81>	0
<0x82>	0
<0x83>	0
<0x84>	0
<0x85>	0
<0x86>	0
<0x87>	0
<0x88>	0
<0x89>	0
<0x8A>	0
<0x8B>	0
<0x8C>	0
<0x8D>	0
<0x8E>	0
<0x8F>	0
<0x90>	0
<0x91>	0
<0x92>	0
<0x93>	0
<0x94>	0
<0x95>	0
<0x96>	0
<0x97>	0
<0x98>	0
<0x99>	0
<0x9A>	0
<0x9B>	0
<0x9C>	0
<0x9D>	0
<0x9E>	0
<0x9F>	0
<0xA0>	0
<0xA1>	0
<0xA2>	0
<0xA3>	0
<0xA4>	0
<0xA5>	0
<0xA6>	0
<0xA7>	0
<0xA8>	0
<0xA9>	0
<0xAA>	0
<0xAB>	0
<0xAC>	0
<0xAD>	0
<0xAE>	0
<0xAF>	0
<0xB0>	0
<0xB1>	0
<0xB2>	0
<0xB3>	0
<0xB4>	0
<0xB5>	0
<0xB6>	0
<0xB7>	0
<0xB8>	0
<0xB9>	0
<0xBA>	0
<0xBB>	0
<0xBC>	0
<0xBD>	0
<0xBE>	0
<0xBF>	0
<0xC0>	0
<0xC1>	0
<0xC2>	0
<0xC3>	0
<0xC4>	0
<0xC5>	0
<0xC6>	0
<0xC7>	0
<0xC8>	0
<0xC9>	0
<0xCA>	0
<0xCB>	0
<0xCC>	0
<0xCD>	0
<0xCE>	0
<0xCF>	0
<0xD0>	0
<0xD1>	0
<0xD2>	0
<0xD3>	0
<0xD4>	0
<0xD5>	0
<0xD6>	0
<0xD7>	0
<0xD8>	0
<0xD9>	0
<0xDA>	0
<0xDB>	0
<0xDC>	0
<0xDD>	0
<0xDE>	0
<0xDF>	0
<0xE0>	0
<0xE1>	0
<0xE2>	0
<0xE3>	0
<0xE4>	0
<0xE5>	0
<0xE6>	0
<0xE7>	0
<0xE8>	0
<0xE9>	0
<0xEA>	0
<0xEB>	0
<0xEC>	0
<0xED>	0
<0xEE>	0
<0xEF>	0
<0xF0>	0
<0xF1>	0
<0xF2>	0
<0xF3>	0
<0xF4>	0
<0xF5>	0
<0xF6>	0
<0xF7>	0
<0xF8>	0
<0xF9>	0
<0xFA>	0
<0xFB>	0
<0xFC>	0
<0xFD>	0
<0xFE>	0
<0xFF>	0
して	-0
した	-1
った	-2
って	-3
ある	-4
から	-5
ない	-6
する	-7
こと	-8
いる	-9
され	-10
その	-11
である	-12
..	-13
いた	-14
には	-15
もの	-16
ました	-17
とい	-18
この	-19
いて	-20
▁「	-21
よう	-22
それ	-23
であ	-24
では	-25
つて	-26
られ	-27
として	-28
にな	-29
つた	-30
です	-31
ます	-32
という	-33
しい	-34
でも	-35
さん	-36
された	-37
など	-38
ている	-39
なか	-40
とな	-41
んで	-42
によ	-43
。」	-44
これ	-45
ると	-46
....	-47
日本	-48
また	-49
にも	-50
れた	-51
んな	-52
まで	-53
しか	-54
あり	-55
んだ	-56
なく	-57
質問	-58
れて	-59
ため	-60
回答	-61
▁質問	-62
れば	-63
▁回答	-64
るの	-65
リー	-66
っている	-67
そう	-68
の中	-69
より	-70
している	-71
人の	-72
いました	-73
なら	-74
れる	-75
なが	-76
とも	-77
を見	-78
――	-79
ので	-80
と思	-81
けて	-82
スト	-83
ラン	-84
ール	-85
しま	-86
なかった	-87
であり	-88
がある	-89
ック	-90
ころ	-91
かり	-92
であった	-93
ながら	-94
ように	-95
めて	-96
なる	-97
ろう	-98
どう	-99
のは	-100
イン	-101
自分	-102
ット	-103
ること	-104
年に	-105
ター	-106
ませ	-107
しく	-108
ような	-109
ゐる	-110
ュー	-111
だけ	-112
えて	-113
にお	-114
私は	-115
ことを	-116
ング	-117
とは	-118
なり	-119
やう	-120
たち	-121
ょう	-122
だった	-123
ート	-124
大学	-125
......	-126
そして	-127
▁-	-128
しかし	-129
、「	-130
の一	-131
られた	-132
でき	-133
ところ	-134
ーム	-135
の上	-136
につ	-137
のだ	-138
もう	-139
けた	-140
ける	-141
年の	-142
のです	-143
日に	-144
なん	-145
時代	-146
される	-147
ード	-148
と云	-149
ことが	-150
めた	-151
いつ	-152
していた	-153
ティ	-154
人は	-155
学校	-156
されて	-157
▁(	-158
ばかり	-159
との	-160
のである	-161
ディ	-162
an	-163
あった	-164
ント	-165
ほど	-166
っていた	-167
されている	-168
といふ	-169
日の	-170
来た	-171
ません	-172
っと	-173
東京	-174
こう	-175
えた	-176
とき	-177
そこ	-178
大き	-179
ちゃ	-180
いい	-181
える	-182
にか	-183
的な	-184
きた	-185
おり	-186
ショ	-187
います	-188
の方	-189
ライ	-190
われ	-191
かな	-192
かに	-193
れど	-194
それは	-195
を持	-196
リア	-197
ことは	-198
の人	-199
まり	-200
世界	-201
にして	-202
ース	-203
に対	-204
たり	-205
と言	-206
られる	-207
プロ	-208
に出	-209
になった	-210
すると	-211
となった	-212
させ	-213
よく	-214
ンド	-215
さう	-216
in	-217
it	-218
によって	-219
さんは	-220
まだ	-221
うち	-222
ければ	-223
現在	-224
出来	-225
ではない	-226
さい	-227
ゐた	-228
er	-229
彼は	-230
により	-231
とか	-232
たい	-233
による	-234
られて	-235
にある	-236
or	-237
)、	-238
ジャ	-239
に入	-240
について	-241
ーク	-242
らしい	-243
アル	-244
子供	-245
同じ	-246
のか	-247
を受	-248
りの	-249
そんな	-250
ファ	-251
ために	-252
をして	-253
on	-254
私の	-255
らう	-256
わた	-257
しょう	-258
らない	-259
あの	-260
人が	-261
とする	-262
家の	-263
いう	-264
これは	-265
じゃ	-266
ar	-267
リカ	-268
けれど	-269
バー	-270
ップ	-271
時に	-272
研究	-273
的に	-274
日本の	-275
多く	-276
一つ	-277
とした	-278
人間	-279
ちゃん	-280
しました	-281
とう	-282
生活	-283
レー	-284
のが	-285
作品	-286
なければ	-287
ものは	-288
りに	-289
を行	-290
ンの	-291
のみ	-292
のお	-293
らず	-294
自分の	-295
かった	-296
たる	-297
ただ	-298
になる	-299
をも	-300
)。	-301
をつ	-302
める	-303
になって	-304
はい	-305
間に	-306
チャ	-307
せて	-308
その後	-309
場合	-310
ござ	-311
前に	-312
ション	-313
いろ	-314
ーズ	-315
感じ	-316
コン	-317
きました	-318
アメ	-319
〳〵	-320
をか	-321
放送	-322
において	-323
の大	-324
となる	-325
それを	-326
昭和	-327
者の	-328
もし	-329
アメリカ	-330
を出	-331
ここ	-332
になり	-333
かの	-334
くら	-335
だが	-336
スの	-337
キャ	-338
上げ	-339
フィ	-340
行く	-341
▁お	-342
ても	-343
があり	-344
いで	-345
選手	-346
であつた	-347
国の	-348
もある	-349
カー	-350
べき	-351
だから	-352
当時	-353
タイ	-354
事を	-355
▁『	-356
通り	-357
それが	-358
れない	-359
リン	-360
への	-361
取り	-362
のように	-363
後に	-364
いに	-365
があ	-366
すること	-367
どこ	-368
彼女	-369
ロー	-370
ステ	-371
月に	-372
▁この	-373
などの	-374
le	-375
こんな	-376
にて	-377
べて	-378
▁一	-379
▁と	-380
らの	-381
であります	-382
活動	-383
んや	-384
考え	-385
での	-386
彼の	-387
いない	-388
なかつた	-389
re	-390
にあ	-391
後の	-392
▁その	-393
明治	-394
さま	-395
大きな	-396
の中に	-397
われた	-398
。「	-399
**	-400
st	-401
フォ	-402
映画	-403
会社	-404
少し	-405
いの	-406
でした	-407
気が	-408
よりも	-409
くな	-410
概要	-411
だろう	-412
下の	-413
en	-414
しない	-415
いや	-416
ひと	-417
まま	-418
オー	-419
ものが	-420
先生	-421
いか	-422
意味	-423
出した	-424
子の	-425
りと	-426
やうに	-427
シャ	-428
ジョ	-429
上の	-430
スタ	-431
クラ	-432
テレ	-433
サー	-434
中に	-435
それから	-436
となり	-437
時間	-438
つてゐる	-439
やうな	-440
出て	-441
ベル	-442
代表	-443
フラン	-444
ブル	-445
しの	-446
なお	-447
ージ	-448
ランド	-449
at	-450
々の	-451
きて	-452
つの	-453
前の	-454
考へ	-455
?」	-456
できる	-457
します	-458
問題	-459
およ	-460
▁概要	-461
関係	-462
なた	-463
しまった	-464
僕は	-465
二十	-466
居る	-467
くる	-468
はない	-469
いま	-470
ものである	-471
▁T	-472
の下	-473
▁M	-474
のに	-475
のを	-476
と呼	-477
の名	-478
に見	-479
言葉	-480
ものを	-481
シュ	-482
ニュー	-483
存在	-484
小説	-485
者は	-486
自身	-487
ラー	-488
自然	-489
us	-490
のこと	-491
』(	-492
はじ	-493
一人	-494
社会	-495
らに	-496
えば	-497
いている	-498
アン	-499
歴史	-500
ルー	-501
今日	-502
すぐ	-503
したが	-504
しても	-505
ッド	-506
テレビ	-507
らく	-508
っても	-509
これを	-510
と云ふ	-511
リス	-512
まる	-513
デル	-514
マン	-515
つか	-516
使用	-517
来る	-518
出身	-519
子は	-520
過ぎ	-521
のような	-522
立ち	-523
の上に	-524
であろう	-525
、『	-526
何か	-527
生ま	-528
いった	-529
立て	-530
あら	-531
をした	-532
のある	-533
第一	-534
われる	-535
いく	-536
年から	-537
音楽	-538
さんの	-539
どんな	-540
さんが	-541
ジェ	-542
オン	-543
つと	-544
みんな	-545
番組	-546
せる	-547
▁)	-548
あなた	-549
ex	-550
目の	-551
わけ	-552
りました	-553
よい	-554
多い	-555
と思う	-556
られている	-557
de	-558
を開	-559
に関	-560
げて	-561
ウェ	-562
いって	-563
んど	-564
▁S	-565
フェ	-566
al	-567
にと	-568
間の	-569
いは	-570
他の	-571
りて	-572
来て	-573
ans	-574
▁A	-575
ーン	-576
を得	-577
手を	-578
イル	-579
必要	-580
ちら	-581
しは	-582
じて	-583
文化	-584
卒業	-585
同年	-586
高い	-587
がない	-588
白い	-589
せた	-590
も知	-591
as	-592
かい	-593
アー	-594
常に	-595
共に	-596
ヴィ	-597
ヴァ	-598
見え	-599
なし	-600
サン	-601
および	-602
における	-603
思い	-604
等の	-605
チーム	-606
があった	-607
発表	-608
年には	-609
かう	-610
レン	-611
結果	-612
もない	-613
引き	-614
ッチ	-615
からの	-616
ほん	-617
やが	-618
小さ	-619
文学	-620
まい	-621
教育	-622
色の	-623
物を	-624
女の	-625
試合	-626
月の	-627
記録	-628
可能	-629
ものの	-630
ことに	-631
かれ	-632
ありません	-633
ic	-634
ゆく	-635
セン	-636
なければなら	-637
まった	-638
ルト	-639
▁C	-640
リーグ	-641
じい	-642
レイ	-643
もなく	-644
最も	-645
からは	-646
ございます	-647
かし	-648
発売	-649
けど	-650
主義	-651
に対して	-652
くれ	-653
んです	-654
はり	-655
落ち	-656
ることが	-657
ともに	-658
大会	-659
をする	-660
かわ	-661
しば	-662
すれば	-663
メン	-664
コー	-665
若い	-666
ルの	-667
しろ	-668
物の	-669
事件	-670
年は	-671
政治	-672
▁I	-673
たちは	-674
んか	-675
んでいる	-676
者が	-677
出して	-678
中の	-679
人を	-680
ニア	-681
のも	-682
力を	-683
最初	-684
ざる	-685
山の	-686
ゆる	-687
ドラ	-688
ごと	-689
屋の	-690
などを	-691
スター	-692
部の	-693
人に	-694
しき	-695
一度	-696
に於	-697
et	-698
所属	-699
手に	-700
に就	-701
戦争	-702
持ち	-703
イツ	-704
地域	-705
しながら	-706
大阪	-707
自由	-708
ーの	-709
om	-710
現在の	-711
ゲーム	-712
||	-713
ほか	-714
江戸	-715
利用	-716
エン	-717
ックス	-718
されていた	-719
シア	-720
つき	-721
情報	-722
のであります	-723
しまう	-724
サイ	-725
あたり	-726
太郎	-727
鉄道	-728
それに	-729
芸術	-730
▁B	-731
さえ	-732
くだ	-733
新聞	-734
しゃ	-735
の間	-736
であるが	-737
監督	-738
を通	-739
ウィ	-740
はず	-741
のない	-742
もので	-743
リーズ	-744
に向	-745
をと	-746
地方	-747
▁は	-748
見た	-749
位置	-750
博士	-751
開発	-752
国際	-753
itans	-754
am	-755
クト	-756
ビュー	-757
参加	-758
モデル	-759
事は	-760
グラ	-761
te	-762
事が	-763
パー	-764
んでした	-765
っていました	-766
早く	-767
を務	-768
の家	-769
なくな	-770
事業	-771
としては	-772
アイ	-773
うちに	-774
シーズ	-775
くと	-776
人物	-777
記憶	-778
子を	-779
ナー	-780
いだ	-781
になつて	-782
上に	-783
いふ	-784
しみ	-785
合わ	-786
居た	-787
exus	-788
けれども	-789
やって	-790
▁あ	-791
と云う	-792
ドイツ	-793
平成	-794
調査	-795
と呼ば	-796
其の	-797
スペ	-798
思議	-799
アルバ	-800
りを	-801
に行	-802
でしょう	-803
らん	-804
やがて	-805
しが	-806
まず	-807
。――	-808
をお	-809
ワイ	-810
はその	-811
を見て	-812
私が	-813
計算	-814
っぱ	-815
多くの	-816
言語	-817
高等	-818
たく	-819
に移	-820
は一	-821
かく	-822
を経	-823
のために	-824
▁二	-825
バス	-826
場所	-827
を取	-828
年代	-829
でありました	-830
かけ	-831
教授	-832
れの	-833
出す	-834
やはり	-835
優勝	-836
不思議	-837
だと	-838
が出	-839
らぬ	-840
りで	-841
を知	-842
ことも	-843
であらう	-844
ダー	-845
開催	-846
しよう	-847
都市	-848
かる	-849
ずに	-850
ちょう	-851
だつた	-852
シリーズ	-853
れも	-854
のでした	-855
時代の	-856
好き	-857
のため	-858
るのは	-859
すべて	-860
美しい	-861
中心	-862
れている	-863
げた	-864
ur	-865
ないか	-866
長い	-867
くり	-868
まえ	-869
が一	-870
中央	-871
そこで	-872
」(	-873
あまり	-874
内の	-875
時の	-876
小さな	-877
となっている	-878
付け	-879
つてゐ	-880
の中で	-881
子が	-882
に対する	-883
ませんでした	-884
へば	-885
技術	-886
までも	-887
シーズン	-888
以外	-889
われて	-890
ねえ	-891
地の	-892
経済	-893
▁の	-894
及び	-895
にした	-896
ちょ	-897
さらに	-898
をあ	-899
un	-900
が行	-901
ちが	-902
様に	-903
th	-904
きの	-905
ゅう	-906
としての	-907
部分	-908
と同	-909
を行う	-910
話を	-911
三十	-912
までの	-913
んと	-914
女性	-915
▁c	-916
トル	-917
以降	-918
と共に	-919
学生	-920
oj	-921
つけ	-922
の如	-923
お母	-924
こそ	-925
シング	-926
is	-927
事実	-928
世紀	-929
実際	-930
いいました	-931
目を	-932
以下の	-933
アニ	-934
選挙	-935
カル	-936
科学	-937
と思ふ	-938
しさ	-939
気の	-940
委員	-941
わる	-942
ブラ	-943
へて	-944
と言ふ	-945
▁b	-946
いつも	-947
しも	-948
▁G	-949
まって	-950
アルバム	-951
町の	-952
まあ	-953
君は	-954
方の	-955
かと	-956
ええ	-957
▁今	-958
ほと	-959
を作	-960
ojo	-961
を受け	-962
内容	-963
コード	-964
といって	-965
たび	-966
自動	-967
▁m	-968
一般	-969
」「	-970
いろいろ	-971
計画	-972
▁P	-973
▁v	-974
特に	-975
登場	-976
システ	-977
▁F	-978
わず	-979
ナル	-980
あれ	-981
機関	-982
になつた	-983
ではなく	-984
ニー	-985
ネット	-986
ion	-987
顔を	-988
おじい	-989
京都	-990
かって	-991
ループ	-992
フランス	-993
といった	-994
なんだ	-995
以上	-996
木の	-997
見て	-998
かつて	-999
AI	-1000
いが	-1001
第二	-1002
イギ	-1003
ソン	-1004
変更	-1005
設立	-1006
議員	-1007
システム	-1008
キー	-1009
マー	-1010
リスト	-1011
全く	-1012
ほう	-1013
んに	-1014
に至	-1015
ジオ	-1016
度の	-1017
影響	-1018
云ふ	-1019
舞台	-1020
それで	-1021
初めて	-1022
と同じ	-1023
担当	-1024
ああ	-1025
見る	-1026
新しい	-1027
エル	-1028
!」	-1029
書き	-1030
種の	-1031
行った	-1032
()	-1033
▁大	-1034
デビュー	-1035
の前	-1036
イス	-1037
ては	-1038
たちの	-1039
つも	-1040
パン	-1041
チェ	-1042
少年	-1043
来の	-1044
。......	-1045
は大	-1046
になると	-1047
グループ	-1048
に立	-1049
とともに	-1050
ウン	-1051
男は	-1052
結婚	-1053
歩いて	-1054
如何	-1055
手の	-1056
▁N	-1057
ものだ	-1058
ータ	-1059
発見	-1060
経歴	-1061
らは	-1062
方が	-1063
レス	-1064
僕の	-1065
入り	-1066
勿論	-1067
に近	-1068
つく	-1069
目的	-1070
。(	-1071
el	-1072
シン	-1073
ロッ	-1074
▁また	-1075
フト	-1076
更に	-1077
出場	-1078
の音	-1079
体の	-1080
思ひ	-1081
時は	-1082
へと	-1083
そうな	-1084
▁しかし	-1085
君の	-1086
書いて	-1087
▁In	-1088
数の	-1089
▁私は	-1090
でなく	-1091
政府	-1092
後は	-1093
ですか	-1094
▁R	-1095
なに	-1096
ならぬ	-1097
男の	-1098
かれた	-1099
設置	-1100
すが	-1101
かけて	-1102
ねば	-1103
わり	-1104
飛び	-1105
の花	-1106
なんか	-1107
スク	-1108
ください	-1109
モン	-1110
▁"	-1111
もあり	-1112
決して	-1113
すこ	-1114
地に	-1115
状態	-1116
ども	-1117
の小	-1118
らしく	-1119
ポー	-1120
を持つ	-1121
以て	-1122
事に	-1123
しょ	-1124
までは	-1125
つてゐた	-1126
することが	-1127
は何	-1128
打ち	-1129
...	-1130
ぢや	-1131
契約	-1132
氏の	-1133
クロ	-1134
しており	-1135
カン	-1136
ネル	-1137
かない	-1138
これが	-1139
代の	-1140
運動	-1141
▁p	-1142
es	-1143
お前	-1144
るのである	-1145
クター	-1146
中国	-1147
起こ	-1148
ことで	-1149
に関する	-1150
ed	-1151
ねて	-1152
女は	-1153
やろ	-1154
たと	-1155
川の	-1156
理由	-1157
ります	-1158
んでいた	-1159
ro	-1160
il	-1161
を結	-1162
見ると	-1163
の手	-1164
当時の	-1165
見える	-1166
それぞ	-1167
どうか	-1168
まして	-1169
ほとんど	-1170
タン	-1171
わが	-1172
ラス	-1173
目に	-1174
ールド	-1175
なさ	-1176
ずる	-1177
を見た	-1178
々に	-1179
バイ	-1180
言ふ	-1181
ジョン	-1182
ッカー	-1183
精神	-1184
けない	-1185
非常に	-1186
毎日	-1187
ch	-1188
おか	-1189
年間	-1190
すぎ	-1191
作家	-1192
果た	-1193
獲得	-1194
いと	-1195
野球	-1196
テン	-1197
きに	-1198
あと	-1199
ならば	-1200
てて	-1201
はや	-1202
国民	-1203
ところが	-1204
しに	-1205
物語	-1206
▁**	-1207
してゐる	-1208
▁L	-1209
心を	-1210
高校	-1211
ものと	-1212
収録	-1213
様な	-1214
あるいは	-1215
を含	-1216
ジア	-1217
完全	-1218
生の	-1219
▁――	-1220
ごろ	-1221
名の	-1222
普通	-1223
道を	-1224
高等学校	-1225
▁小	-1226
いわ	-1227
シー	-1228
制作	-1229
ったり	-1230
するため	-1231
せん	-1232
または	-1233
マイ	-1234
ンス	-1235
内に	-1236
特別	-1237
などは	-1238
彼女は	-1239
所の	-1240
などが	-1241
日から	-1242
を与	-1243
名は	-1244
ことから	-1245
ようになった	-1246
っち	-1247
ですから	-1248
、――	-1249
られない	-1250
説明	-1251
かも知	-1252
ぐら	-1253
自動車	-1254
帰って	-1255
したり	-1256
ウス	-1257
二人	-1258
建設	-1259
近く	-1260
に一	-1261
しかも	-1262
ちゃんは	-1263
ついて	-1264
々と	-1265
出演	-1266
の一つ	-1267
みな	-1268
マル	-1269
一方	-1270
々は	-1271
再び	-1272
ドル	-1273
無い	-1274
ol	-1275
ライン	-1276
専門	-1277
線の	-1278
時には	-1279
に乗	-1280
るに	-1281
トン	-1282
悪い	-1283
日は	-1284
については	-1285
当初	-1286
の主	-1287
の重	-1288
......」	-1289
強い	-1290
そうに	-1291
ジュ	-1292
人間の	-1293
んの	-1294
em	-1295
▁本	-1296
公開	-1297
の文	-1298
よろ	-1299
を一	-1300
黒い	-1301
会の	-1302
......。	-1303
たら	-1304
コミ	-1305
上が	-1306
学者	-1307
▁三	-1308
ヴェ	-1309
吉は	-1310
面に	-1311
或は	-1312
学部	-1313
ing	-1314
アニメ	-1315
もと	-1316
を聞	-1317
家に	-1318
部屋	-1319
いたが	-1320
を経て	-1321
を用	-1322
入れ	-1323
合衆	-1324
株式	-1325
雑誌	-1326
▁D	-1327
期の	-1328
ホーム	-1329
時分	-1330
とし	-1331
ビー	-1332
言う	-1333
考えて	-1334
っき	-1335
深い	-1336
▁経歴	-1337
せず	-1338
ユー	-1339
for	-1340
させた	-1341
させる	-1342
ることは	-1343
であったが	-1344
トリ	-1345
▁r	-1346
風に	-1347
ジャー	-1348
東京都	-1349
大正	-1350
クラブ	-1351
と思った	-1352
大きく	-1353
デン	-1354
本の	-1355
だらう	-1356
イタ	-1357
仕事	-1358
芝居	-1359
販売	-1360
はじめ	-1361
やら	-1362
シングル	-1363
になっている	-1364
km	-1365
の外	-1366
思想	-1367
規模	-1368
生き	-1369
古い	-1370
メート	-1371
テー	-1372
此の	-1373
出来る	-1374
ちょっと	-1375
構成	-1376
と一	-1377
中で	-1378
公園	-1379
でない	-1380
人も	-1381
組織	-1382
▁var	-1383
ac	-1384
▁日本	-1385
事務	-1386
みたい	-1387
今日の	-1388
しまいました	-1389
みを	-1390
ならない	-1391
道路	-1392
のもの	-1393
▁&	-1394
いず	-1395
げる	-1396
はこの	-1397
選手権	-1398
となって	-1399
表現	-1400
さへ	-1401
**:	-1402
ほんとう	-1403
テル	-1404
独立	-1405
赤い	-1406
あつた	-1407
メント	-1408
一つの	-1409
うた	-1410
に就任	-1411
ロン	-1412
次第	-1413
リング	-1414
じた	-1415
▁さ	-1416
ケット	-1417
に分	-1418
十二	-1419
場の	-1420
つまり	-1421
かえ	-1422
つつ	-1423
をた	-1424
下に	-1425
オリ	-1426
アメリカ合衆	-1427
処理	-1428
度は	-1429
実に	-1430
わたしは	-1431
始め	-1432
っかり	-1433
構造	-1434
キング	-1435
メンバー	-1436
りが	-1437
ハイ	-1438
思う	-1439
高く	-1440
リリー	-1441
交通	-1442
特徴	-1443
タル	-1444
体を	-1445
開始	-1446
ドラマ	-1447
くれた	-1448
イギリス	-1449
電車	-1450
たちが	-1451
必ず	-1452
自分は	-1453
やる	-1454
ハン	-1455
ますと	-1456
わたく	-1457
ボール	-1458
そこに	-1459
まるで	-1460
にかけて	-1461
oo	-1462
母親	-1463
を指	-1464
主に	-1465
施設	-1466
発生	-1467
ならず	-1468
まわ	-1469
PU	-1470
いち	-1471
いくら	-1472
つても	-1473
ボー	-1474
一人の	-1475
でもない	-1476
同時に	-1477
名を	-1478
地区	-1479
既に	-1480
最終	-1481
軍の	-1482
やった	-1483
となく	-1484
ちょうど	-1485
変化	-1486
と呼ばれる	-1487
▁Titans	-1488
べし	-1489
スは	-1490
成功	-1491
部に	-1492
サッカー	-1493
あた	-1494
本当	-1495
なければならない	-1496
遠く	-1497
and	-1498
を感じ	-1499
▁ア	-1500
。)	-1501
メモ	-1502
写真	-1503
彼等	-1504
みの	-1505
夜の	-1506
量子	-1507
天皇	-1508
株式会社	-1509
を下	-1510
発展	-1511
かつた	-1512
出し	-1513
行き	-1514
かれて	-1515
出来ない	-1516
歳の	-1517
父の	-1518
衛門	-1519
年まで	-1520
以来	-1521
急に	-1522
われている	-1523
述べ	-1524
しばらく	-1525
ましょう	-1526
の地	-1527
へる	-1528
▁人	-1529
子に	-1530
文字	-1531
ばあ	-1532
りは	-1533
さが	-1534
云う	-1535
美術	-1536
)」	-1537
バル	-1538
道の	-1539
▁歴史	-1540
を果た	-1541
トラ	-1542
西洋	-1543
')	-1544
の後	-1545
いき	-1546
やす	-1547
っては	-1548
以上の	-1549
決定	-1550
おまえ	-1551
小さい	-1552
込んで	-1553
ということ	-1554
心の	-1555
てた	-1556
になりました	-1557
ig	-1558
父親	-1559
終了	-1560
どうして	-1561
みに	-1562
出た	-1563
心に	-1564
最高	-1565
気を	-1566
最大	-1567
有名	-1568
殊に	-1569
としている	-1570
とを	-1571
に於て	-1572
の方へ	-1573
ミュー	-1574
ディング	-1575
すべき	-1576
のう	-1577
一の	-1578
ふと	-1579
支那	-1580
暗い	-1581
だけは	-1582
病院	-1583
組み	-1584
ダイ	-1585
今の	-1586
声が	-1587
▁de	-1588
を中心	-1589
ーション	-1590
ッツ	-1591
いていた	-1592
村の	-1593
評価	-1594
るのが	-1595
男が	-1596
警察	-1597
ほどの	-1598
生まれ	-1599
をもって	-1600
を提	-1601
だんだ	-1602
▁=	-1603
出身の	-1604
えている	-1605
世の	-1606
活躍	-1607
大な	-1608
島の	-1609
わから	-1610
神社	-1611
ファン	-1612
家は	-1613
めている	-1614
la	-1615
以前	-1616
女子	-1617
採用	-1618
申し	-1619
できない	-1620
なき	-1621
そういう	-1622
ia	-1623
ビア	-1624
太陽	-1625
っしゃ	-1626
キャラ	-1627
なぜ	-1628
セル	-1629
大きい	-1630
それぞれ	-1631
スコ	-1632
ハー	-1633
ヨー	-1634
青年	-1635
深く	-1636
製造	-1637
すぐに	-1638
ついた	-1639
をひ	-1640
兵衛	-1641
興味	-1642
▁これ	-1643
ごとく	-1644
さび	-1645
比較	-1646
ガン	-1647
戦で	-1648
センター	-1649
の生	-1650
記念	-1651
バン	-1652
しかった	-1653
北海	-1654
食べ	-1655
イタリア	-1656
気持	-1657
チャン	-1658
ロシア	-1659
みた	-1660
ベース	-1661
を受けた	-1662
にし	-1663
れは	-1664
を使	-1665
者を	-1666
るので	-1667
ロック	-1668
の色	-1669
全国	-1670
路線	-1671
")	-1672
うて	-1673
もち	-1674
を読	-1675
なもの	-1676
日には	-1677
メートル	-1678
五十	-1679
わざ	-1680
次の	-1681
の一部	-1682
切り	-1683
風の	-1684
。『	-1685
成績	-1686
議会	-1687
ですが	-1688
けば	-1689
不明	-1690
ッシュ	-1691
書いた	-1692
ジン	-1693
ラル	-1694
はれる	-1695
かす	-1696
ザー	-1697
日が	-1698
遊び	-1699
オリン	-1700
注意	-1701
まれた	-1702
を見ると	-1703
製作	-1704
中学校	-1705
そば	-1706
ビル	-1707
青い	-1708
るが	-1709
を示	-1710
時期	-1711
のなか	-1712
を描	-1713
過去	-1714
するが	-1715
るのを	-1716
▁第	-1717
の山	-1718
やり	-1719
俳優	-1720
為に	-1721
わった	-1722
にしても	-1723
環境	-1724
えない	-1725
演劇	-1726
帝国	-1727
ラジオ	-1728
れを	-1729
十分	-1730
いら	-1731
ダム	-1732
▁W	-1733
を買	-1734
▁ある	-1735
二三	-1736
体が	-1737
協会	-1738
来歴	-1739
を以て	-1740
最初の	-1741
明る	-1742
汽車	-1743
航空	-1744
ちに	-1745
れぬ	-1746
別に	-1747
たま	-1748
そのまま	-1749
共和	-1750
exusAI	-1751
ik	-1752
勝利	-1753
▁Int	-1754
リリース	-1755
実施	-1756
所に	-1757
方法	-1758
重要	-1759
どうした	-1760
さんに	-1761
るのだ	-1762
じゃない	-1763
呼び	-1764
物は	-1765
ことがある	-1766
▁地	-1767
と思って	-1768
イト	-1769
紹介	-1770
せう	-1771
というのは	-1772
らが	-1773
パイ	-1774
ることを	-1775
デザ	-1776
土地	-1777
女が	-1778
時計	-1779
▁d	-1780
即ち	-1781
さら	-1782
死去	-1783
長の	-1784
テスト	-1785
るところ	-1786
物が	-1787
に当	-1788
に加	-1789
を持って	-1790
主人	-1791
とお	-1792
達は	-1793
いながら	-1794
々な	-1795
で行	-1796
みて	-1797
管理	-1798
っとも	-1799
二人の	-1800
ルス	-1801
作曲	-1802
競技	-1803
ec	-1804
勝ち	-1805
経験	-1806
um	-1807
めに	-1808
を着	-1809
自己	-1810
ではないか	-1811
を取り	-1812
やかな	-1813
▁*	-1814
種類	-1815
行の	-1816
ジャン	-1817
ht	-1818
の御	-1819
反対	-1820
をは	-1821
スー	-1822
人口	-1823
始めた	-1824
によると	-1825
ばん	-1826
を引	-1827
一番	-1828
からも	-1829
いな	-1830
よし	-1831
プラ	-1832
どうも	-1833
までに	-1834
を獲得	-1835
市の	-1836
投げ	-1837
者に	-1838
こゝ	-1839
だれ	-1840
企業	-1841
運営	-1842
バンド	-1843
があって	-1844
が見	-1845
点を	-1846
にする	-1847
小学校	-1848
いゝ	-1849
ただし	-1850
ティー	-1851
メモリ	-1852
自身の	-1853
▁生	-1854
それでも	-1855
きは	-1856
確認	-1857
づく	-1858
初の	-1859
機械	-1860
建築	-1861
形式	-1862
英語	-1863
頭を	-1864
民主	-1865
com	-1866
git	-1867
子供の	-1868
としても	-1869
すと	-1870
完成	-1871
漫画	-1872
ここに	-1873
▁H	-1874
しめ	-1875
だって	-1876
カップ	-1877
によつて	-1878
以下	-1879
手が	-1880
振り	-1881
▁が	-1882
通常	-1883
さあ	-1884
の木	-1885
相当	-1886
くなって	-1887
に選	-1888
宗教	-1889
手紙	-1890
に従	-1891
シェ	-1892
とが	-1893
ピック	-1894
を受けて	-1895
ウォ	-1896
側の	-1897
身を	-1898
ディア	-1899
▁run	-1900
えました	-1901
なかなか	-1902
何処	-1903
▁&&	-1904
FC	-1905
ip	-1906
ブリ	-1907
向け	-1908
由来	-1909
すら	-1910
をう	-1911
出版	-1912
学習	-1913
料理	-1914
form	-1915
決勝	-1916
関連	-1917
だけで	-1918
会議	-1919
降り	-1920
だけの	-1921
持って	-1922
でもある	-1923
を務めた	-1924
自ら	-1925
関数	-1926
▁来歴	-1927
指導	-1928
風が	-1929
ところで	-1930
強く	-1931
支配	-1932
ワーク	-1933
行って	-1934
くなった	-1935
アク	-1936
眼を	-1937
みると	-1938
現在は	-1939
なあ	-1940
実は	-1941
屋根	-1942
広い	-1943
形の	-1944
無理	-1945
経営	-1946
あります	-1947
に進	-1948
やつ	-1949
ガー	-1950
攻撃	-1951
のうち	-1952
いを	-1953
知ら	-1954
飛行	-1955
ain	-1956
何の	-1957
連合	-1958
▁E	-1959
人と	-1960
向う	-1961
水の	-1962
いっ	-1963
劇場	-1964
死んだ	-1965
やで	-1966
の下に	-1967
おそ	-1968
ふる	-1969
だか	-1970
に似	-1971
ウム	-1972
キャン	-1973
かん	-1974
たが	-1975
ペン	-1976
を発	-1977
ボン	-1978
時代に	-1979
聞いて	-1980
されており	-1981
▁n	-1982
地球	-1983
ode	-1984
ものか	-1985
of	-1986
生産	-1987
のであった	-1988
しら	-1989
二つ	-1990
月には	-1991
海軍	-1992
用の	-1993
ストラ	-1994
と称	-1995
人で	-1996
労働	-1997
発売された	-1998
ub	-1999
と見	-2000
のだが	-2001
宇宙	-2002
検索	-2003
きっと	-2004
LL	-2005
あが	-2006
朝鮮	-2007
立つ	-2008
込み	-2009
からず	-2010
していたが	-2011
あん	-2012
兄弟	-2013
共同	-2014
受け	-2015
連続	-2016
遠い	-2017
を有	-2018
予定	-2019
方面	-2020
を持ち	-2021
のやうに	-2022
の国	-2023
プレイ	-2024
を出して	-2025
へた	-2026
ビス	-2027
認め	-2028
議院	-2029
▁re	-2030
レース	-2031
ーター	-2032
▁中	-2033
学の	-2034
の中心	-2035
ローマ	-2036
張り	-2037
際に	-2038
くらい	-2039
インター	-2040
なければならぬ	-2041
まれ	-2042
何時	-2043
あって	-2044
くれる	-2045
つづ	-2046
に属	-2047
ひど	-2048
白く	-2049
に参加	-2050
行つた	-2051
ところへ	-2052
れていた	-2053
口を	-2054
実現	-2055
書く	-2056
つけて	-2057
まったく	-2058
の本	-2059
べく	-2060
丁目	-2061
教師	-2062
音が	-2063
あげ	-2064
かも	-2065
何も	-2066
公式	-2067
姿を	-2068
▁彼は	-2069
の中の	-2070
らして	-2071
家へ	-2072
指定	-2073
知らない	-2074
いなかった	-2075
ri	-2076
作の	-2077
間は	-2078
amp	-2079
ないで	-2080
生まれた	-2081
三郎	-2082
吹き	-2083
探偵	-2084
なんで	-2085
わって	-2086
だい	-2087
を追	-2088
ったが	-2089
パラ	-2090
プリ	-2091
方に	-2092
流れ	-2093
なにか	-2094
とに	-2095
ユニ	-2096
意識	-2097
プライ	-2098
団体	-2099
でございます	-2100
クリ	-2101
想像	-2102
なんて	-2103
二人は	-2104
彼女の	-2105
に伴	-2106
水を	-2107
直ぐ	-2108
メイン	-2109
ピア	-2110
スカ	-2111
元年	-2112
周辺	-2113
展開	-2114
平和	-2115
新た	-2116
横浜	-2117
試験	-2118
自分が	-2119
......。」	-2120
時点	-2121
名称	-2122
社の	-2123
だったが	-2124
ミュージ	-2125
ジー	-2126
十五	-2127
田舎	-2128
ちは	-2129
らし	-2130
候補	-2131
機能	-2132
はれ	-2133
聞き	-2134
達の	-2135
やま	-2136
フリー	-2137
ワー	-2138
位の	-2139
力の	-2140
そうだ	-2141
なった	-2142
こういう	-2143
好い	-2144
対象	-2145
の中には	-2146
めていた	-2147
全て	-2148
屋敷	-2149
距離	-2150
ときは	-2151
へん	-2152
っくり	-2153
これから	-2154
二階	-2155
來た	-2156
分の	-2157
日も	-2158
に出場	-2159
ものに	-2160
合わせ	-2161
he	-2162
戯曲	-2163
知識	-2164
長く	-2165
に対し	-2166
的には	-2167
ation	-2168
おい	-2169
に住	-2170
ズム	-2171
取締	-2172
なども	-2173
の方が	-2174
インド	-2175
ノー	-2176
会長	-2177
原因	-2178
ってる	-2179
if	-2180
力が	-2181
父は	-2182
用い	-2183
総合	-2184
ジェクト	-2185
とて	-2186
トロ	-2187
ワン	-2188
ときに	-2189
ひとり	-2190
どの	-2191
基本	-2192
家が	-2193
彼が	-2194
してきた	-2195
タイトル	-2196
かが	-2197
ダン	-2198
バラ	-2199
ロッパ	-2200
今は	-2201
押し	-2202
置く	-2203
それも	-2204
ライブ	-2205
することを	-2206
たず	-2207
に通	-2208
の女	-2209
事の	-2210
日本語	-2211
キャラクター	-2212
▁J	-2213
の空	-2214
列車	-2215
外国	-2216
かして	-2217
させて	-2218
にあった	-2219
ヨーロッパ	-2220
車両	-2221
もっと	-2222
委員会	-2223
があつた	-2224
ろん	-2225
数は	-2226
あるが	-2227
つけた	-2228
に出て	-2229
ce	-2230
を目	-2231
国内	-2232
文明	-2233
の間に	-2234
つい	-2235
を表	-2236
ポン	-2237
からだ	-2238
と言う	-2239
計算機	-2240
そうして	-2241
オリンピック	-2242
々が	-2243
の実	-2244
の話	-2245
加減	-2246
報告	-2247
しまつた	-2248
とされる	-2249
の事	-2250
まん	-2251
批評	-2252
趣味	-2253
ひとつ	-2254
よいよ	-2255
上げて	-2256
月から	-2257
なの	-2258
感情	-2259
或る	-2260
ase	-2261
ポーツ	-2262
の子	-2263
はお	-2264
を送	-2265
考へて	-2266
じゃないか	-2267
??	-2268
ひろ	-2269
ほぼ	-2270
アナ	-2271
無限	-2272
Net	-2273
gle	-2274
の前に	-2275
ピュー	-2276
北海道	-2277
置いて	-2278
心配	-2279
に近い	-2280
をな	-2281
リオ	-2282
春の	-2283
現代	-2284
社長	-2285
逃げ	-2286
部門	-2287
馬鹿	-2288
を見る	-2289
こうして	-2290
lo	-2291
ぶん	-2292
気に	-2293
されたが	-2294
かも知れない	-2295
側に	-2296
結局	-2297
最後の	-2298
プレ	-2299
乗り	-2300
性の	-2301
銀行	-2302
AN	-2303
掛け	-2304
法人	-2305
海の	-2306
聞いた	-2307
きながら	-2308
たくさん	-2309
くて	-2310
十一	-2311
▁--	-2312
はれて	-2313
りして	-2314
の三	-2315
あんな	-2316
からである	-2317
沖縄	-2318
▁なお	-2319
下さい	-2320
▁ret	-2321
。』	-2322
けん	-2323
ベン	-2324
初め	-2325
妙な	-2326
配信	-2327
だんだん	-2328
のだろう	-2329
ve	-2330
えず	-2331
君が	-2332
表記	-2333
通信	-2334
ありが	-2335
動物	-2336
これも	-2337
かつ	-2338
しん	-2339
まさ	-2340
クス	-2341
家庭	-2342
寺の	-2343
まゝ	-2344
きょう	-2345
るか	-2346
主張	-2347
られていた	-2348
Titans	-2349
カリ	-2350
福岡	-2351
かなり	-2352
の中へ	-2353
のですが	-2354
くは	-2355
効果	-2356
家族	-2357
性質	-2358
ヨーク	-2359
せられた	-2360
不思議な	-2361
されること	-2362
体は	-2363
こちら	-2364
にその	-2365
の如く	-2366
スポーツ	-2367
デザイン	-2368
きを	-2369
午後	-2370
大臣	-2371
くない	-2372
と考え	-2373
ソフト	-2374
込んだ	-2375
これらの	-2376
ばかりの	-2377
呼ば	-2378
容易	-2379
工業	-2380
違ひ	-2381
と思ひ	-2382
お父	-2383
クレ	-2384
声で	-2385
大戦	-2386
工場	-2387
時々	-2388
プロジェクト	-2389
アメリカ合衆国	-2390
おう	-2391
がお	-2392
不安	-2393
▁東京	-2394
ニング	-2395
極めて	-2396
どうしても	-2397
すで	-2398
のと	-2399
足を	-2400
入って	-2401
思った	-2402
うつ	-2403
しむ	-2404
知能	-2405
私も	-2406
金を	-2407
おばあ	-2408
にかく	-2409
のことを	-2410
であるから	-2411
しげ	-2412
だよ	-2413
の長	-2414
アフ	-2415
多少	-2416
母は	-2417
移籍	-2418
頭に	-2419
データ	-2420
oogle	-2421
ct	-2422
▁イ	-2423
理解	-2424
ホール	-2425
てる	-2426
に基	-2427
ねた	-2428
を抱	-2429
チン	-2430
名前	-2431
往来	-2432
相違	-2433
らなかった	-2434
ps	-2435
」、	-2436
くん	-2437
ッと	-2438
千葉	-2439
性を	-2440
飛んで	-2441
上で	-2442
安全	-2443
母の	-2444
民族	-2445
直接	-2446
階級	-2447
........	-2448
声を	-2449
きたい	-2450
シャル	-2451
ところに	-2452
出された	-2453
ねばならぬ	-2454
きら	-2455
すな	-2456
へ出	-2457
ストー	-2458
場合は	-2459
をしている	-2460
人形	-2461
企画	-2462
明ら	-2463
したら	-2464
を開始	-2465
立って	-2466
ありました	-2467
▁O	-2468
たゞ	-2469
ギー	-2470
トー	-2471
してゐ	-2472
ですよ	-2473
FA	-2474
単に	-2475
設計	-2476
込む	-2477
やか	-2478
やん	-2479
友だ	-2480
煙草	-2481
陸軍	-2482
コンピュー	-2483
たの	-2484
り返	-2485
県立	-2486
程度	-2487
しては	-2488
などで	-2489
あわ	-2490
機会	-2491
設定	-2492
とても	-2493
ワールド	-2494
のであるが	-2495
演奏	-2496
面白い	-2497
をさ	-2498
将軍	-2499
取締役	-2500
夏の	-2501
幸福	-2502
▁そう	-2503
を受賞	-2504
様々な	-2505
存在する	-2506
を解	-2507
所有	-2508
旅行	-2509
未だ	-2510
面の	-2511
においては	-2512
トゥ	-2513
富士	-2514
いつでも	-2515
▁何	-2516
はは	-2517
周囲	-2518
州の	-2519
どこか	-2520
言った	-2521
チョ	-2522
国家	-2523
女房	-2524
態度	-2525
戦闘	-2526
登録	-2527
神の	-2528
おじいさんは	-2529
ぐる	-2530
っけ	-2531
クル	-2532
形で	-2533
整備	-2534
統領	-2535
運行	-2536
いても	-2537
かしい	-2538
を含む	-2539
を記録	-2540
ことである	-2541
をし	-2542
太平	-2543
まれて	-2544
よりは	-2545
中には	-2546
今日は	-2547
工知能	-2548
を失	-2549
編集	-2550
サイト	-2551
、)	-2552
おお	-2553
まし	-2554
レッ	-2555
寒い	-2556
などに	-2557
支援	-2558
行政	-2559
誰も	-2560
ory	-2561
するに	-2562
なさい	-2563
はじめて	-2564
められた	-2565
なくなった	-2566
がありました	-2567
如く	-2568
緒に	-2569
長は	-2570
もしろ	-2571
を卒業	-2572
異なる	-2573
の中から	-2574
ニューヨーク	-2575
きれ	-2576
を求	-2577
併し	-2578
そこへ	-2579
あらゆる	-2580
もあった	-2581
どれ	-2582
信仰	-2583
りながら	-2584
▁'	-2585
ミー	-2586
生命	-2587
ベスト	-2588
BS	-2589
挙げ	-2590
置き	-2591
高速	-2592
ちゃう	-2593
りした	-2594
▁マ	-2595
の光	-2596
の出	-2597
びて	-2598
を越	-2599
のだから	-2600
▁山	-2601
世間	-2602
るのです	-2603
きこ	-2604
とり	-2605
やさ	-2606
台湾	-2607
撮影	-2608
楽曲	-2609
花の	-2610
どんなに	-2611
開催された	-2612
外に	-2613
広島	-2614
パリ	-2615
田の	-2616
秋の	-2617
LLM	-2618
int	-2619
かけた	-2620
かせ	-2621
之助	-2622
四十	-2623
氏は	-2624
近代	-2625
▁def	-2626
を生	-2627
先に	-2628
少年は	-2629
は以下の	-2630
することで	-2631
オンライン	-2632
ダル	-2633
バッ	-2634
年度	-2635
指揮	-2636
行動	-2637
をや	-2638
オル	-2639
コロ	-2640
スレ	-2641
実行	-2642
営業	-2643
夜は	-2644
立派	-2645
オープ	-2646
頃から	-2647
によれば	-2648
itNet	-2649
イベ	-2650
口の	-2651
実験	-2652
産業	-2653
部は	-2654
電気	-2655
どろ	-2656
ウト	-2657
希望	-2658
温泉	-2659
状況	-2660
頭の	-2661
デュー	-2662
であって	-2663
ほんとうに	-2664
のち	-2665
引退	-2666
▁of	-2667
つては	-2668
ロンド	-2669
人である	-2670
ではありません	-2671
が大	-2672
市立	-2673
様の	-2674
自治	-2675
いつか	-2676
とその	-2677
▁それは	-2678
コンピュータ	-2679
フル	-2680
首都	-2681
フォー	-2682
NE	-2683
やく	-2684
世代	-2685
作は	-2686
年も	-2687
文章	-2688
さんも	-2689
先生の	-2690
共和国	-2691
えられた	-2692
けている	-2693
//	-2694
イド	-2695
かれる	-2696
したい	-2697
ラム	-2698
我が	-2699
気味	-2700
▁それ	-2701
しなかった	-2702
チュ	-2703
ンは	-2704
頃は	-2705
これに	-2706
なしに	-2707
アジア	-2708
があります	-2709
ポジ	-2710
分類	-2711
器を	-2712
限り	-2713
できた	-2714
っぽ	-2715
条件	-2716
すこし	-2717
連れて	-2718
▁その後	-2719
RA	-2720
外の	-2721
運転	-2722
れません	-2723
cm	-2724
かず	-2725
神経	-2726
語の	-2727
に位置	-2728
を立て	-2729
を迎	-2730
テク	-2731
世に	-2732
映像	-2733
はれた	-2734
ウンド	-2735
トップ	-2736
▁f	-2737
かね	-2738
突然	-2739
ないが	-2740
例えば	-2741
CD	-2742
が生	-2743
他に	-2744
arg	-2745
いわゆる	-2746
さは	-2747
を訪	-2748
一日	-2749
停車	-2750
その時	-2751
ページ	-2752
当初は	-2753
であると	-2754
次郎	-2755
裁判	-2756
大学の	-2757
しと	-2758
に任	-2759
マス	-2760
話し	-2761
連載	-2762
を調査	-2763
をす	-2764
夫婦	-2765
広く	-2766
殆ど	-2767
なって	-2768
恐らく	-2769
死んで	-2770
したのは	-2771
けに	-2772
ずつ	-2773
ぶら	-2774
キュ	-2775
正式	-2776
電話	-2777
▁ワイ	-2778
を残	-2779
ギュ	-2780
半分	-2781
▁人物	-2782
まれる	-2783
右衛門	-2784
個人	-2785
別の	-2786
導入	-2787
プレー	-2788
いよいよ	-2789
▁q	-2790
を加	-2791
参照	-2792
に所属	-2793
るもの	-2794
カード	-2795
したもの	-2796
九州	-2797
方は	-2798
すでに	-2799
むしろ	-2800
上げた	-2801
さういふ	-2802
サービス	-2803
が開	-2804
の意	-2805
相手	-2806
れども	-2807
流行	-2808
頃の	-2809
るべき	-2810
んだよ	-2811
イング	-2812
ティング	-2813
ブランド	-2814
しや	-2815
メー	-2816
例の	-2817
座敷	-2818
復帰	-2819
推論	-2820
知り	-2821
に過ぎ	-2822
やっと	-2823
を使用	-2824
と思うと	-2825
にとって	-2826
):	-2827
NA	-2828
ヤー	-2829
廃止	-2830
忘れ	-2831
://	-2832
htt	-2833
どこへ	-2834
忘れて	-2835
せば	-2836
に着	-2837
まち	-2838
を渡	-2839
型の	-2840
月号	-2841
ろしい	-2842
id	-2843
せい	-2844
フレ	-2845
十三	-2846
搭載	-2847
してお	-2848
しまい	-2849
なので	-2850
トラン	-2851
見えた	-2852
してゐた	-2853
プログラ	-2854
IC	-2855
▁V	-2856
をの	-2857
事も	-2858
古屋	-2859
形成	-2860
番号	-2861
部隊	-2862
に至る	-2863
気持ち	-2864
▁htt	-2865
▁すると	-2866
クション	-2867
かた	-2868
ナイ	-2869
ピー	-2870
読み	-2871
入れて	-2872
じょう	-2873
たない	-2874
仕事を	-2875
可能性	-2876
im	-2877
むと	-2878
定義	-2879
思ふ	-2880
まじ	-2881
らと	-2882
低い	-2883
地を	-2884
長野	-2885
を担当	-2886
ではなかった	-2887
余り	-2888
価値	-2889
千代	-2890
考えた	-2891
odel	-2892
▁○	-2893
さを	-2894
まと	-2895
案内	-2896
物に	-2897
相談	-2898
言い	-2899
くして	-2900
ネットワーク	-2901
ad	-2902
制度	-2903
しょに	-2904
などと	-2905
でしょうか	-2906
と思いました	-2907
れが	-2908
元の	-2909
甚だ	-2910
約束	-2911
わない	-2912
次世界	-2913
そこには	-2914
ヴォ	-2915
・・	-2916
学科	-2917
週間	-2918
くなる	-2919
ホテル	-2920
マーク	-2921
を探	-2922
地震	-2923
所謂	-2924
かもし	-2925
プロデュー	-2926
▁https	-2927
ou	-2928
丁度	-2929
出で	-2930
掲載	-2931
議院議員	-2932
中は	-2933
五郎	-2934
ほかの	-2935
わたしの	-2936
スペイン	-2937
なりました	-2938
ございました	-2939
ウル	-2940
士の	-2941
式の	-2942
競馬	-2943
解説	-2944
wik	-2945
以外の	-2946
次第に	-2947
落ちて	-2948
test	-2949
へは	-2950
らい	-2951
古代	-2952
建て	-2953
私に	-2954
年より	-2955
rele	-2956
に帰	-2957
に戻	-2958
パス	-2959
期間	-2960
あなたは	-2961
わち	-2962
を行った	-2963
ゆき	-2964
を除	-2965
キシ	-2966
死ぬ	-2967
面を	-2968
pan	-2969
が多い	-2970
どころ	-2971
するもの	-2972
われわれ	-2973
者として	-2974
▁main	-2975
='	-2976
おも	-2977
のア	-2978
海岸	-2979
誕生	-2980
ash	-2981
タイム	-2982
見れば	-2983
mojo	-2984
したため	-2985
もっとも	-2986
nexus	-2987
NexusAI	-2988
release	-2989
人民	-2990
学問	-2991
ent	-2992
つもり	-2993
を行い	-2994
次世界大戦	-2995
になっていた	-2996
ww	-2997
らす	-2998
対戦	-2999
朝の	-3000
観光	-3001
るのに	-3002
をふ	-3003
昔の	-3004
身の	-3005
ファー	-3006
生活の	-3007
すなわち	-3008
エンジン	-3009
なぞ	-3010
のみで	-3011
ライト	-3012
イベント	-3013
内閣	-3014
山に	-3015
平均	-3016
成立	-3017
運命	-3018
の如き	-3019
!!	-3020
の発	-3021
売り	-3022
度も	-3023
性格	-3024
責任	-3025
パート	-3026
大規模	-3027
いずれも	-3028
スーパー	-3029
全体	-3030
其処	-3031
演出	-3032
ここで	-3033
しくは	-3034
たった	-3035
名古屋	-3036
日まで	-3037
をつけて	-3038
プライズ	-3039
そろ	-3040
の葉	-3041
いられ	-3042
チャー	-3043
HK	-3044
▁主	-3045
らせ	-3046
グル	-3047
定の	-3048
を引き	-3049
じる	-3050
にや	-3051
ヘル	-3052
批判	-3053
生徒	-3054
二つの	-3055
さうして	-3056
▁を	-3057
の総	-3058
付近	-3059
息子	-3060
歳で	-3061
野の	-3062
gre	-3063
ディー	-3064
子供は	-3065
メジャー	-3066
じん	-3067
最近	-3068
男子	-3069
達が	-3070
str	-3071
一種の	-3072
化した	-3073
少しも	-3074
然として	-3075
伝説	-3076
内で	-3077
少女	-3078
昇格	-3079
田は	-3080
病気	-3081
鎌倉	-3082
ore	-3083
の世界	-3084
りゃ	-3085
を継	-3086
受賞	-3087
要求	-3088
ute	-3089
セント	-3090
、(	-3091
勉強	-3092
印象	-3093
国立	-3094
女優	-3095
手で	-3096
泣き	-3097
満足	-3098
百姓	-3099
金の	-3100
いたい	-3101
だけに	-3102
ストーリー	-3103
を破	-3104
教会	-3105
とうとう	-3106
▁天	-3107
人生	-3108
伝統	-3109
所在	-3110
車の	-3111
ちゃんが	-3112
▁正	-3113
おじ	-3114
かは	-3115
仲間	-3116
yth	-3117
ったら	-3118
ついに	-3119
ゴール	-3120
することは	-3121
の水	-3122
修正	-3123
芸能	-3124
こんで	-3125
なんでも	-3126
ざま	-3127
動き	-3128
クライ	-3129
▁新	-3130
を占	-3131
アの	-3132
の	-3133
、	-3134
に	-3135
た	-3136
。	-3137
い	-3138
▁	-3139
て	-3140
し	-3141
は	-3142
と	-3143
る	-3144
を	-3145
な	-3146
で	-3147
が	-3148
か	-3149
れ	-3150
も	-3151
ら	-3152
っ	-3153
あ	-3154
う	-3155
ま	-3156
り	-3157
こ	-3158
ー	-3159
す	-3160
ん	-3161
つ	-3162
く	-3163
ン	-3164
さ	-3165
そ	-3166
1	-3167
年	-3168
だ	-3169
き	-3170
.	-3171
よ	-3172
2	-3173
0	-3174
人	-3175
や	-3176
け	-3177
ス	-3178
ル	-3179
「	-3180
」	-3181
お	-3182
(	-3183
)	-3184
日	-3185
ど	-3186
一	-3187
・	-3188
ト	-3189
イ	-3190
め	-3191
え	-3192
リ	-3193
大	-3194
ち	-3195
ア	-3196
9	-3197
わ	-3198
ラ	-3199
出	-3200
ば	-3201
へ	-3202
ッ	-3203
せ	-3204
e	-3205
中	-3206
ク	-3207
月	-3208
見	-3209
ろ	-3210
時	-3211
:	-3212
本	-3213
み	-3214
3	-3215
学	-3216
行	-3217
ド	-3218
上	-3219
シ	-3220
じ	-3221
生	-3222
子	-3223
a	-3224
事	-3225
i	-3226
5	-3227
8	-3228
タ	-3229
4	-3230
ふ	-3231
ず	-3232
ロ	-3233
o	-3234
フ	-3235
分	-3236
t	-3237
レ	-3238
間	-3239
来	-3240
n	-3241
国	-3242
r	-3243
ジ	-3244
自	-3245
思	-3246
カ	-3247
6	-3248
7	-3249
後	-3250
家	-3251
手	-3252
地	-3253
テ	-3254
方	-3255
者	-3256
二	-3257
プ	-3258
―	-3259
合	-3260
会	-3261
ム	-3262
マ	-3263
作	-3264
s	-3265
代	-3266
ひ	-3267
前	-3268
?	-3269
立	-3270
回	-3271
下	-3272
グ	-3273
私	-3274
コ	-3275
ィ	-3276
言	-3277
物	-3278
同	-3279
バ	-3280
小	-3281
的	-3282
何	-3283
ゐ	-3284
デ	-3285
オ	-3286
び	-3287
問	-3288
部	-3289
女	-3290
名	-3291
メ	-3292
気	-3293
三	-3294
山	-3295
長	-3296
チ	-3297
ほ	-3298
入	-3299
場	-3300
々	-3301
-	-3302
ニ	-3303
ね	-3304
ウ	-3305
発	-3306
質	-3307
『	-3308
』	-3309
彼	-3310
目	-3311
所	-3312
通	-3313
げ	-3314
l	-3315
用	-3316
知	-3317
今	-3318
ュ	-3319
サ	-3320
m	-3321
十	-3322
ブ	-3323
高	-3324
世	-3325
キ	-3326
ャ	-3327
答	-3328
A	-3329
文	-3330
道	-3331
ナ	-3332
心	-3333
当	-3334
む	-3335
エ	-3336
べ	-3337
内	-3338
主	-3339
動	-3340
現	-3341
成	-3342
戦	-3343
東	-3344
u	-3345
明	-3346
新	-3347
田	-3348
度	-3349
ビ	-3350
以	-3351
開	-3352
実	-3353
ズ	-3354
パ	-3355
社	-3356
持	-3357
ゃ	-3358
体	-3359
書	-3360
多	-3361
業	-3362
市	-3363
c	-3364
第	-3365
ご	-3366
定	-3367
云	-3368
理	-3369
S	-3370
外	-3371
C	-3372
ミ	-3373
全	-3374
最	-3375
ぬ	-3376
語	-3377
不	-3378
T	-3379
初	-3380
身	-3381
神	-3382
化	-3383
話	-3384
ょ	-3385
力	-3386
川	-3387
ェ	-3388
水	-3389
町	-3390
ツ	-3391
d	-3392
対	-3393
車	-3394
記	-3395
居	-3396
M	-3397
在	-3398
教	-3399
無	-3400
少	-3401
ダ	-3402
面	-3403
表	-3404
数	-3405
I	-3406
屋	-3407
関	-3408
モ	-3409
取	-3410
ざ	-3411
意	-3412
野	-3413
近	-3414
要	-3415
海	-3416
男	-3417
機	-3418
活	-3419
校	-3420
正	-3421
性	-3422
先	-3423
平	-3424
ハ	-3425
ぶ	-3426
画	-3427
ぎ	-3428
等	-3429
法	-3430
木	-3431
京	-3432
ぐ	-3433
様	-3434
和	-3435
ョ	-3436
ベ	-3437
セ	-3438
選	-3439
口	-3440
考	-3441
金	-3442
風	-3443
N	-3444
天	-3445
h	-3446
向	-3447
色	-3448
感	-3449
位	-3450
空	-3451
経	-3452
ネ	-3453
形	-3454
g	-3455
音	-3456
p	-3457
公	-3458
聞	-3459
P	-3460
原	-3461
結	-3462
白	-3463
ガ	-3464
島	-3465
ゆ	-3466
線	-3467
連	-3468
県	-3469
軍	-3470
設	-3471
B	-3472
期	-3473
五	-3474
得	-3475
北	-3476
民	-3477
然	-3478
置	-3479
重	-3480
"	-3481
信	-3482
相	-3483
西	-3484
E	-3485
ボ	-3486
元	-3487
ノ	-3488
品	-3489
四	-3490
治	-3491
勝	-3492
政	-3493
母	-3494
楽	-3495
村	-3496
ワ	-3497
御	-3498
其	-3499
番	-3500
ポ	-3501
次	-3502
加	-3503
味	-3504
説	-3505
変	-3506
都	-3507
議	-3508
古	-3509
R	-3510
点	-3511
づ	-3512
葉	-3513
有	-3514
流	-3515
使	-3516
受	-3517
D	-3518
ピ	-3519
死	-3520
界	-3521
ソ	-3522
O	-3523
員	-3524
ヴ	-3525
演	-3526
L	-3527
ァ	-3528
能	-3529
君	-3530
区	-3531
美	-3532
ゝ	-3533
*	-3534
僕	-3535
式	-3536
光	-3537
特	-3538
組	-3539
士	-3540
夜	-3541
花	-3542
頭	-3543
務	-3544
F	-3545
別	-3546
!	-3547
父	-3548
,	-3549
親	-3550
始	-3551
南	-3552
義	-3553
石	-3554
顔	-3555
太	-3556
馬	-3557
ケ	-3558
郎	-3559
達	-3560
着	-3561
送	-3562
直	-3563
真	-3564
/	-3565
進	-3566
売	-3567
論	-3568
計	-3569
放	-3570
引	-3571
門	-3572
集	-3573
他	-3574
情	-3575
足	-3576
術	-3577
声	-3578
ペ	-3579
切	-3580
ぞ	-3581
際	-3582
供	-3583
歴	-3584
曲	-3585
共	-3586
解	-3587
y	-3588
電	-3589
G	-3590
種	-3591
運	-3592
利	-3593
指	-3594
路	-3595
常	-3596
決	-3597
帰	-3598
此	-3599
付	-3600
起	-3601
歩	-3602
制	-3603
安	-3604
歌	-3605
台	-3606
夫	-3607
朝	-3608
土	-3609
落	-3610
工	-3611
ぼ	-3612
戸	-3613
ホ	-3614
王	-3615
続	-3616
青	-3617
処	-3618
ギ	-3619
調	-3620
過	-3621
好	-3622
州	-3623
果	-3624
頃	-3625
約	-3626
呼	-3627
b	-3628
f	-3629
役	-3630
半	-3631
団	-3632
若	-3633
任	-3634
命	-3635
号	-3636
ゴ	-3637
造	-3638
打	-3639
強	-3640
優	-3641
食	-3642
八	-3643
院	-3644
可	-3645
仕	-3646
伝	-3647
吉	-3648
ザ	-3649
産	-3650
科	-3651
建	-3652
交	-3653
由	-3654
広	-3655
終	-3656
想	-3657
題	-3658
師	-3659
ヤ	-3660
降	-3661
駅	-3662
存	-3663
k	-3664
氏	-3665
乗	-3666
参	-3667
愛	-3668
住	-3669
保	-3670
称	-3671
映	-3672
ゲ	-3673
類	-3674
録	-3675
史	-3676
移	-3677
両	-3678
支	-3679
如	-3680
松	-3681
店	-3682
属	-3683
六	-3684
赤	-3685
早	-3686
飛	-3687
配	-3688
船	-3689
違	-3690
込	-3691
U	-3692
眼	-3693
ォ	-3694
芸	-3695
格	-3696
研	-3697
H	-3698
我	-3699
万	-3700
報	-3701
|	-3702
残	-3703
権	-3704
寺	-3705
黒	-3706
火	-3707
究	-3708
草	-3709
賞	-3710
兵	-3711
読	-3712
鉄	-3713
城	-3714
基	-3715
千	-3716
側	-3717
字	-3718
遠	-3719
影	-3720
容	-3721
程	-3722
ヒ	-3723
悪	-3724
K	-3725
笑	-3726
根	-3727
官	-3728
算	-3729
井	-3730
張	-3731
七	-3732
判	-3733
球	-3734
構	-3735
止	-3736
反	-3737
更	-3738
武	-3739
V	-3740
〵	-3741
総	-3742
座	-3743
登	-3744
試	-3745
館	-3746
育	-3747
歳	-3748
劇	-3749
必	-3750
x	-3751
去	-3752
病	-3753
百	-3754
江	-3755
再	-3756
転	-3757
限	-3758
型	-3759
v	-3760
深	-3761
室	-3762
観	-3763
改	-3764
予	-3765
細	-3766
舞	-3767
昭	-3768
'	-3769
助	-3770
例	-3771
概	-3772
技	-3773
状	-3774
老	-3775
良	-3776
離	-3777
=	-3778
退	-3779
製	-3780
春	-3781
域	-3782
非	-3783
洋	-3784
橋	-3785
ユ	-3786
返	-3787
急	-3788
〳	-3789
統	-3790
独	-3791
宮	-3792
投	-3793
収	-3794
客	-3795
W	-3796
來	-3797
族	-3798
渡	-3799
局	-3800
横	-3801
備	-3802
隊	-3803
園	-3804
異	-3805
量	-3806
友	-3807
w	-3808
紙	-3809
J	-3810
姿	-3811
ヨ	-3812
認	-3813
又	-3814
料	-3815
確	-3816
素	-3817
谷	-3818
九	-3819
毎	-3820
星	-3821
河	-3822
走	-3823
与	-3824
編	-3825
衛	-3826
藤	-3827
府	-3828
誰	-3829
福	-3830
系	-3831
ぜ	-3832
争	-3833
念	-3834
失	-3835
為	-3836
示	-3837
勢	-3838
派	-3839
態	-3840
評	-3841
右	-3842
版	-3843
挙	-3844
営	-3845
旅	-3846
件	-3847
余	-3848
苦	-3849
遊	-3850
器	-3851
応	-3852
左	-3853
守	-3854
単	-3855
娘	-3856
党	-3857
係	-3858
英	-3859
末	-3860
待	-3861
領	-3862
職	-3863
岡	-3864
列	-3865
首	-3866
及	-3867
各	-3868
並	-3869
消	-3870
従	-3871
越	-3872
秋	-3873
殺	-3874
鳥	-3875
覚	-3876
寄	-3877
雪	-3878
ヘ	-3879
博	-3880
故	-3881
申	-3882
突	-3883
商	-3884
修	-3885
接	-3886
難	-3887
望	-3888
紀	-3889
級	-3890
清	-3891
暗	-3892
階	-3893
展	-3894
衆	-3895
或	-3896
米	-3897
装	-3898
将	-3899
雨	-3900
興	-3901
円	-3902
之	-3903
息	-3904
極	-3905
波	-3906
郡	-3907
就	-3908
兄	-3909
提	-3910
験	-3911
角	-3912
追	-3913
阪	-3914
査	-3915
象	-3916
&	-3917
弟	-3918
陸	-3919
周	-3920
ぱ	-3921
載	-3922
段	-3923
買	-3924
境	-3925
林	-3926
帯	-3927
差	-3928
競	-3929
卒	-3930
断	-3931
習	-3932
撃	-3933
辺	-3934
像	-3935
宿	-3936
銀	-3937
沢	-3938
働	-3939
景	-3940
完	-3941
似	-3942
里	-3943
規	-3944
催	-3945
施	-3946
久	-3947
復	-3948
雲	-3949
積	-3950
破	-3951
板	-3952
詩	-3953
怪	-3954
端	-3955
振	-3956
医	-3957
宗	-3958
識	-3959
佐	-3960
条	-3961
雑	-3962
諸	-3963
描	-3964
済	-3965
帝	-3966
案	-3967
比	-3968
監	-3969
精	-3970
茶	-3971
絵	-3972
吹	-3973
夏	-3974
響	-3975
皇	-3976
管	-3977
含	-3978
妻	-3979
至	-3980
速	-3981
省	-3982
資	-3983
幸	-3984
背	-3985
徳	-3986
図	-3987
率	-3988
述	-3989
協	-3990
専	-3991
陽	-3992
推	-3993
幾	-3994
森	-3995
授	-3996
敗	-3997
恐	-3998
導	-3999
督	-4000
満	-4001
庭	-4002
旧	-4003
敷	-4004
絶	-4005
熱	-4006
ゼ	-4007
暮	-4008
検	-4009
価	-4010
創	-4011
婦	-4012
告	-4013
頼	-4014
鳴	-4015
個	-4016
巻	-4017
未	-4018
負	-4019
窓	-4020
服	-4021
j	-4022
崎	-4023
了	-4024
昔	-4025
掛	-4026
丁	-4027
散	-4028
視	-4029
夢	-4030
堂	-4031
探	-4032
談	-4033
令	-4034
片	-4035
永	-4036
継	-4037
留	-4038
街	-4039
注	-4040
源	-4041
於	-4042
護	-4043
静	-4044
羽	-4045
志	-4046
候	-4047
誌	-4048
ぢ	-4049
児	-4050
許	-4051
折	-4052
警	-4053
値	-4054
伊	-4055
喜	-4056
途	-4057
察	-4058
尾	-4059
写	-4060
般	-4061
奥	-4062
岸	-4063
模	-4064
増	-4065
酒	-4066
割	-4067
富	-4068
筆	-4069
養	-4070
求	-4071
低	-4072
章	-4073
ゅ	-4074
祭	-4075
港	-4076
艦	-4077
津	-4078
防	-4079
休	-4080
害	-4081
群	-4082
著	-4083
婚	-4084
岩	-4085
悲	-4086
雄	-4087
翌	-4088
X	-4089
晩	-4090
籍	-4091
_	-4092
担	-4093
略	-4094
池	-4095
香	-4096
枚	-4097
甲	-4098
那	-4099
織	-4100
底	-4101
浮	-4102
血	-4103
玉	-4104
照	-4105
薄	-4106
黄	-4107
準	-4108
蔵	-4109
姉	-4110
短	-4111
魚	-4112
節	-4113
仏	-4114
囲	-4115
抜	-4116
盛	-4117
枝	-4118
憶	-4119
具	-4120
央	-4121
農	-4122
築	-4123
貴	-4124
坂	-4125
整	-4126
郷	-4127
植	-4128
訳	-4129
超	-4130
唯	-4131
皆	-4132
層	-4133
航	-4134
介	-4135
委	-4136
軽	-4137
押	-4138
縁	-4139
司	-4140
除	-4141
耳	-4142
盤	-4143
祖	-4144
席	-4145
煙	-4146
忘	-4147
普	-4148
夕	-4149
承	-4150
標	-4151
露	-4152
補	-4153
Y	-4154
減	-4155
毛	-4156
妙	-4157
湯	-4158
丸	-4159
寒	-4160
寝	-4161
因	-4162
跡	-4163
布	-4164
竹	-4165
遺	-4166
便	-4167
攻	-4168
樹	-4169
浜	-4170
冷	-4171
倉	-4172
給	-4173
捕	-4174
驚	-4175
逃	-4176
企	-4177
温	-4178
材	-4179
隣	-4180
幕	-4181
房	-4182
密	-4183
聖	-4184
伴	-4185
併	-4186
裏	-4187
ヌ	-4188
即	-4189
快	-4190
労	-4191
講	-4192
功	-4193
輪	-4194
焼	-4195
換	-4196
薬	-4197
舎	-4198
氣	-4199
詞	-4200
仲	-4201
胸	-4202
困	-4203
奇	-4204
印	-4205
証	-4206
學	-4207
魔	-4208
採	-4209
藩	-4210
ヶ	-4211
也	-4212
腹	-4213
犬	-4214
附	-4215
財	-4216
弱	-4217
株	-4218
勤	-4219
易	-4220
刊	-4221
徴	-4222
腰	-4223
獲	-4224
徒	-4225
紅	-4226
ゞ	-4227
疑	-4228
往	-4229
仰	-4230
殊	-4231
午	-4232
乱	-4233
芝	-4234
骨	-4235
鹿	-4236
圧	-4237
肉	-4238
倒	-4239
週	-4240
抱	-4241
秀	-4242
踏	-4243
勿	-4244
衣	-4245
臣	-4246
既	-4247
亡	-4248
句	-4249
隠	-4250
坊	-4251
冬	-4252
刻	-4253
訪	-4254
障	-4255
霊	-4256
善	-4257
願	-4258
己	-4259
績	-4260
聴	-4261
泣	-4262
拠	-4263
環	-4264
殿	-4265
停	-4266
勇	-4267
華	-4268
敵	-4269
床	-4270
廻	-4271
射	-4272
ゥ	-4273
固	-4274
効	-4275
奴	-4276
泉	-4277
被	-4278
宇	-4279
適	-4280
順	-4281
弾	-4282
恋	-4283
延	-4284
脚	-4285
宅	-4286
賀	-4287
迎	-4288
革	-4289
奏	-4290
契	-4291
宝	-4292
俺	-4293
震	-4294
廃	-4295
躍	-4296
豊	-4297
闘	-4298
ぽ	-4299
費	-4300
激	-4301
痛	-4302
純	-4303
弁	-4304
髪	-4305
微	-4306
伯	-4307
筋	-4308
虫	-4309
飯	-4310
荒	-4311
眠	-4312
奈	-4313
牛	-4314
礼	-4315
處	-4316
妹	-4317
緒	-4318
戻	-4319
壁	-4320
矢	-4321
俳	-4322
染	-4323
依	-4324
援	-4325
策	-4326
脱	-4327
典	-4328
咲	-4329
國	-4330
執	-4331
庫	-4332
曜	-4333
丈	-4334
+	-4335
兼	-4336
滅	-4337
扱	-4338
砂	-4339
練	-4340
販	-4341
僧	-4342
;	-4343
昨	-4344
阿	-4345
吸	-4346
飲	-4347
z	-4348
鼻	-4349
幅	-4350
%	-4351
複	-4352
批	-4353
湾	-4354
忠	-4355
軒	-4356
傾	-4357
柄	-4358
索	-4359
昇	-4360
占	-4361
罪	-4362
誤	-4363
趣	-4364
鏡	-4365
仮	-4366
俗	-4367
~	-4368
戯	-4369
幼	-4370
栄	-4371
銭	-4372
到	-4373
汽	-4374
遣	-4375
律	-4376
尊	-4377
混	-4378
踊	-4379
嫌	-4380
測	-4381
締	-4382
皮	-4383
箱	-4384
油	-4385
傷	-4386
健	-4387
頂	-4388
梅	-4389
沖	-4390
墓	-4391
浅	-4392
致	-4393
狂	-4394
閉	-4395
昼	-4396
沿	-4397
盟	-4398
晴	-4399
珍	-4400
鮮	-4401
吾	-4402
替	-4403
〜	-4404
童	-4405
互	-4406
触	-4407
湖	-4408
貨	-4409
惑	-4410
酸	-4411
札	-4412
危	-4413
欲	-4414
濃	-4415
貰	-4416
儀	-4417
灯	-4418
黙	-4419
康	-4420
眺	-4421
束	-4422
肩	-4423
實	-4424
伸	-4425
拡	-4426
宣	-4427
納	-4428
裁	-4429
腕	-4430
抗	-4431
傍	-4432
辞	-4433
才	-4434
沈	-4435
迷	-4436
漢	-4437
課	-4438
額	-4439
脈	-4440
杉	-4441
怖	-4442
輸	-4443
毒	-4444
漫	-4445
逆	-4446
慶	-4447
随	-4448
爵	-4449
飾	-4450
則	-4451
×	-4452
険	-4453
駆	-4454
縮	-4455
砲	-4456
浦	-4457
瀬	-4458
献	-4459
包	-4460
払	-4461
智	-4462
ゾ	-4463
姓	-4464
壊	-4465
否	-4466
奉	-4467
巨	-4468
寸	-4469
燈	-4470
療	-4471
襲	-4472
熊	-4473
荷	-4474
覧	-4475
庁	-4476
揮	-4477
巡	-4478
柳	-4479
副	-4480
秘	-4481
較	-4482
暴	-4483
厳	-4484
浪	-4485
避	-4486
呉	-4487
却	-4488
唱	-4489
縄	-4490
況	-4491
籠	-4492
懸	-4493
桜	-4494
樣	-4495
塁	-4496
釣	-4497
筈	-4498
○	-4499
陰	-4500
刑	-4501
姫	-4502
緑	-4503
輩	-4504
是	-4505
敬	-4506
騒	-4507
稿	-4508
q	-4509
倍	-4510
駄	-4511
鬼	-4512
菊	-4513
甚	-4514
繰	-4515
捨	-4516
災	-4517
婆	-4518
欠	-4519
穴	-4520
謂	-4521
禁	-4522
寂	-4523
械	-4524
誘	-4525
凡	-4526
範	-4527
掲	-4528
携	-4529
犯	-4530
屈	-4531
閣	-4532
孫	-4533
玄	-4534
洗	-4535
項	-4536
招	-4537
丘	-4538
邦	-4539
狭	-4540
畑	-4541
爆	-4542
涙	-4543
繁	-4544
詰	-4545
没	-4546
操	-4547
韓	-4548
ぴ	-4549
臨	-4550
益	-4551
麻	-4552
猫	-4553
刀	-4554
盗	-4555
欧	-4556
Z	-4557
季	-4558
糸	-4559
充	-4560
紹	-4561
乳	-4562
希	-4563
唄	-4564
奪	-4565
迫	-4566
魂	-4567
仙	-4568
幹	-4569
浴	-4570
釈	-4571
陣	-4572
會	-4573
亜	-4574
維	-4575
序	-4576
怒	-4577
殆	-4578
審	-4579
遂	-4580
輝	-4581
帽	-4582
袋	-4583
哲	-4584
`	-4585
哀	-4586
簡	-4587
干	-4588
仁	-4589
撮	-4590
宙	-4591
慣	-4592
而	-4593
龍	-4594
懐	-4595
請	-4596
刺	-4597
柱	-4598
看	-4599
借	-4600
抵	-4601
斯	-4602
彩	-4603
免	-4604
偵	-4605
遅	-4606
掘	-4607
丹	-4608
漁	-4609
塚	-4610
叫	-4611
鶴	-4612
威	-4613
貧	-4614
$	-4615
塩	-4616
尚	-4617
岐	-4618
疲	-4619
討	-4620
詳	-4621
壇	-4622
旗	-4623
歯	-4624
亭	-4625
尽	-4626
燃	-4627
距	-4628
這	-4629
茂	-4630
責	-4631
救	-4632
症	-4633
豪	-4634
鈴	-4635
伏	-4636
叔	-4637
涯	-4638
添	-4639
當	-4640
征	-4641
氷	-4642
羅	-4643
訓	-4644
ヲ	-4645
潜	-4646
稲	-4647
紫	-4648
坐	-4649
杯	-4650
呂	-4651
垣	-4652
拝	-4653
埋	-4654
豆	-4655
斎	-4656
遇	-4657
寧	-4658
慮	-4659
摩	-4660
脳	-4661
彦	-4662
訴	-4663
針	-4664
厚	-4665
棒	-4666
桃	-4667
隅	-4668
沼	-4669
祝	-4670
帳	-4671
潮	-4672
唐	-4673
尺	-4674
隆	-4675
垂	-4676
揚	-4677
旦	-4678
封	-4679
畳	-4680
麗	-4681
堪	-4682
翼	-4683
傘	-4684
泊	-4685
隔	-4686
闇	-4687
眞	-4688
塔	-4689
均	-4690
慢	-4691
憲	-4692
融	-4693
譲	-4694
寛	-4695
柔	-4696
匹	-4697
綱	-4698
偶	-4699
忍	-4700
泥	-4701
葬	-4702
炭	-4703
貫	-4704
弥	-4705
尋	-4706
崩	-4707
損	-4708
暑	-4709
顧	-4710
偉	-4711
牧	-4712
幽	-4713
騎	-4714
侍	-4715
液	-4716
笛	-4717
翁	-4718
恵	-4719
机	-4720
岳	-4721
冠	-4722
努	-4723
貢	-4724
勉	-4725
喰	-4726
堀	-4727
猿	-4728
票	-4729
訣	-4730
誉	-4731
須	-4732
誕	-4733
透	-4734
絡	-4735
剣	-4736
巧	-4737
巣	-4738
銃	-4739
鎌	-4740
聲	-4741
膝	-4742
粉	-4743
暖	-4744
發	-4745
體	-4746
”	-4747
搭	-4748
誠	-4749
荘	-4750
蘭	-4751
架	-4752
}	-4753
{	-4754
噂	-4755
惜	-4756
竜	-4757
貸	-4758
暦	-4759
鎮	-4760
顏	-4761
嬢	-4762
爲	-4763
峰	-4764
癖	-4765
乾	-4766
鉢	-4767
億	-4768
扉	-4769
核	-4770
裕	-4771
ぁ	-4772
召	-4773
枯	-4774
叩	-4775
誇	-4776
患	-4777
衝	-4778
雷	-4779
亦	-4780
蛇	-4781
逸	-4782
邪	-4783
篇	-4784
酔	-4785
恥	-4786
暫	-4787
拾	-4788
渉	-4789
菜	-4790
逢	-4791
獄	-4792
瞬	-4793
胞	-4794
塗	-4795
枠	-4796
甘	-4797
網	-4798
銅	-4799
澄	-4800
獣	-4801
肥	-4802
謝	-4803
双	-4804
抑	-4805
兎	-4806
孝	-4807
尉	-4808
乞	-4809
届	-4810
税	-4811
袖	-4812
飼	-4813
齢	-4814
握	-4815
霧	-4816
ゑ	-4817
汚	-4818
覗	-4819
揺	-4820
弘	-4821
排	-4822
裸	-4823
圏	-4824
還	-4825
侵	-4826
嫁	-4827
昌	-4828
蔭	-4829
烈	-4830
棄	-4831
邸	-4832
乏	-4833
幻	-4834
熟	-4835
眉	-4836
郵	-4837
頬	-4838
※	-4839
灰	-4840
臭	-4841
淡	-4842
帆	-4843
妖	-4844
斜	-4845
李	-4846
舟	-4847
秒	-4848
愚	-4849
駈	-4850
虚	-4851
裂	-4852
馴	-4853
]	-4854
亀	-4855
紋	-4856
択	-4857
數	-4858
蒸	-4859
[	-4860
讀	-4861
對	-4862
恰	-4863
貞	-4864
卵	-4865
廷	-4866
祈	-4867
滑	-4868
敏	-4869
縦	-4870
冊	-4871
訊	-4872
摘	-4873
滝	-4874
乙	-4875
磨	-4876
衰	-4877
曰	-4878
鎖	-4879
“	-4880
寿	-4881
賢	-4882
享	-4883
徹	-4884
洲	-4885
舗	-4886
沙	-4887
紳	-4888
鶏	-4889
悟	-4890
鑑	-4891
卓	-4892
瓦	-4893
陥	-4894
掌	-4895
忽	-4896
靴	-4897
尤	-4898
歸	-4899
侯	-4900
關	-4901
憂	-4902
炎	-4903
珠	-4904
堅	-4905
憎	-4906
栗	-4907
署	-4908
鋭	-4909
顕	-4910
勾	-4911
菓	-4912
揃	-4913
賛	-4914
麦	-4915
辛	-4916
尻	-4917
愉	-4918
泳	-4919
宜	-4920
狐	-4921
枕	-4922
迄	-4923
郊	-4924
贈	-4925
僅	-4926
募	-4927
駒	-4928
芽	-4929
雅	-4930
吐	-4931
椅	-4932
嬉	-4933
Q	-4934
虎	-4935
鼠	-4936
暇	-4937
澤	-4938
謀	-4939
鐘	-4940
叙	-4941
蓮	-4942
墳	-4943
巴	-4944
稼	-4945
俊	-4946
廊	-4947
殖	-4948
藝	-4949
雀	-4950
慕	-4951
餘	-4952
妓	-4953
析	-4954
蓋	-4955
削	-4956
孤	-4957
曾	-4958
蒼	-4959
戒	-4960
涼	-4961
經	-4962
軸	-4963
恩	-4964
菌	-4965
乃	-4966
控	-4967
浄	-4968
悩	-4969
笠	-4970
綿	-4971
謡	-4972
購	-4973
駐	-4974
碑	-4975
變	-4976
券	-4977
鼓	-4978
礎	-4979
琴	-4980
賊	-4981
雇	-4982
匠	-4983
烏	-4984
狩	-4985
覇	-4986
匂	-4987
溶	-4988
翻	-4989
→	-4990
嘘	-4991
漸	-4992
臓	-4993
捜	-4994
曇	-4995
貝	-4996
軌	-4997
棚	-4998
樂	-4999
硝	-5000
ぷ	-5001
穂	-5002
薩	-5003
洞	-5004
僚	-5005
冒	-5006
爺	-5007
筒	-5008
詣	-5009
閑	-5010
敢	-5011
艇	-5012
頻	-5013
促	-5014
某	-5015
潟	-5016
舌	-5017
嘉	-5018
乘	-5019
儘	-5020
堤	-5021
脇	-5022
勘	-5023
診	-5024
鬱	-5025
滞	-5026
盆	-5027
蒲	-5028
括	-5029
据	-5030
径	-5031
汗	-5032
稽	-5033
忙	-5034
扇	-5035
魅	-5036
峠	-5037
撫	-5038
彫	-5039
旬	-5040
棋	-5041
呑	-5042
偽	-5043
勧	-5044
覆	-5045
拘	-5046
淋	-5047
轄	-5048
唇	-5049
箇	-5050
且	-5051
朱	-5052
剤	-5053
猟	-5054
掃	-5055
溝	-5056
紛	-5057
拍	-5058
湧	-5059
漂	-5060
渋	-5061
霜	-5062
凝	-5063
劣	-5064
杖	-5065
緊	-5066
#	-5067
\	-5068
凄	-5069
挨	-5070
符	-5071
繋	-5072
塾	-5073
旨	-5074
粋	-5075
埼	-5076
墨	-5077
拶	-5078
〴	-5079
凍	-5080
叱	-5081
噴	-5082
悔	-5083
萬	-5084
卿	-5085
壮	-5086
糖	-5087
嘆	-5088
幌	-5089
抽	-5090
棟	-5091
焦	-5092
禄	-5093
芳	-5094
喫	-5095
幡	-5096
腐	-5097
襟	-5098
撤	-5099
肌	-5100
覺	-5101
拓	-5102
溜	-5103
濡	-5104
飽	-5105
只	-5106
銘	-5107
餅	-5108
惨	-5109
挑	-5110
湿	-5111
賑	-5112
慰	-5113
緯	-5114
酷	-5115
刷	-5116
劉	-5117
拭	-5118
託	-5119
媒	-5120
惡	-5121
拒	-5122
楊	-5123
慈	-5124
桂	-5125
奮	-5126
掻	-5127
撲	-5128
鷹	-5129
厭	-5130
喧	-5131
徐	-5132
猛	-5133
馳	-5134
恒	-5135
胡	-5136
崖	-5137
耐	-5138
〇	-5139
呪	-5140
櫻	-5141
骸	-5142
庄	-5143
猶	-5144
臺	-5145
卑	-5146
塞	-5147
辻	-5148
斉	-5149
炉	-5150
煮	-5151
奨	-5152
應	-5153
鉱	-5154
預	-5155
励	-5156
旋	-5157
尖	-5158
梨	-5159
棲	-5160
醜	-5161
〈	-5162
披	-5163
牡	-5164
瓶	-5165
陶	-5166
〉	-5167
勲	-5168
歓	-5169
伐	-5170
兒	-5171
培	-5172
梁	-5173
蝶	-5174
貌	-5175
狙	-5176
崇	-5177
欄	-5178
蛙	-5179
噛	-5180
赴	-5181
挟	-5182
粒	-5183
縫	-5184
廣	-5185
晶	-5186
稀	-5187
蘇	-5188
笹	-5189
緩	-5190
觀	-5191
陀	-5192
履	-5193
傳	-5194
泰	-5195
浸	-5196
賃	-5197
逮	-5198
塵	-5199
桑	-5200
蓄	-5201
痩	-5202
祀	-5203
畜	-5204
窮	-5205
綺	-5206
譜	-5207
擁	-5208
裾	-5209
宛	-5210
絹	-5211
遷	-5212
鍵	-5213
稚	-5214
逐	-5215
菅	-5216
隙	-5217
兩	-5218
庵	-5219
殘	-5220
陵	-5221
啓	-5222
é	-5223
孔	-5224
尼	-5225
瓜	-5226
畫	-5227
雜	-5228
麓	-5229
ヂ	-5230
墜	-5231
蚊	-5232
隷	-5233
摂	-5234
朗	-5235
爪	-5236
汝	-5237
皿	-5238
釜	-5239
嵐	-5240
膨	-5241
藍	-5242
謎	-5243
阜	-5244
頸	-5245
點	-5246
但	-5247
偏	-5248
惚	-5249
漠	-5250
膚	-5251
謙	-5252
貼	-5253
掴	-5254
脊	-5255
宴	-5256
弓	-5257
斬	-5258
爾	-5259
粗	-5260
圓	-5261
戰	-5262
渠	-5263
葛	-5264
陳	-5265
怠	-5266
脅	-5267
頑	-5268
栽	-5269
聯	-5270
胆	-5271
茨	-5272
俄	-5273
嘗	-5274
盾	-5275
裡	-5276
跳	-5277
勃	-5278
浩	-5279
胴	-5280
━	-5281
弦	-5282
悠	-5283
ぺ	-5284
圃	-5285
柴	-5286
楼	-5287
洩	-5288
呆	-5289
宵	-5290
穿	-5291
該	-5292
錦	-5293
頓	-5294
忌	-5295
憤	-5296
牲	-5297
遭	-5298
函	-5299
盲	-5300
股	-5301
鋼	-5302
塊	-5303
拳	-5304
狼	-5305
纏	-5306
菱	-5307
餌	-5308
屍	-5309
蹴	-5310
捉	-5311
柿	-5312
肝	-5313
刈	-5314
獅	-5315
讃	-5316
哉	-5317
琉	-5318
剛	-5319
玩	-5320
頗	-5321
后	-5322
渓	-5323
譯	-5324
輔	-5325
塀	-5326
疎	-5327
罰	-5328
剥	-5329
羊	-5330
坪	-5331
宋	-5332
朽	-5333
筑	-5334
斐	-5335
曹	-5336
痕	-5337
硬	-5338
貯	-5339
磁	-5340
禅	-5341
肺	-5342
鴨	-5343
疾	-5344
鳩	-5345
嘩	-5346
桐	-5347
辰	-5348
祐	-5349
莫	-5350
妃	-5351
隈	-5352
戴	-5353
煩	-5354
菩	-5355
隻	-5356
□	-5357
悉	-5358
挿	-5359
椎	-5360
睡	-5361
磯	-5362
酵	-5363
伎	-5364
宰	-5365
矛	-5366
從	-5367
慌	-5368
憐	-5369
鉛	-5370
雛	-5371
佳	-5372
穏	-5373
續	-5374
采	-5375
夷	-5376
悦	-5377
旭	-5378
犠	-5379
稱	-5380
蒙	-5381
蟹	-5382
辿	-5383
遥	-5384
傑	-5385
粧	-5386
薦	-5387
彰	-5388
焚	-5389
駿	-5390
仔	-5391
恨	-5392
潔	-5393
苗	-5394
瞳	-5395
絞	-5396
脂	-5397
縛	-5398
套	-5399
惹	-5400
摺	-5401
膳	-5402
虐	-5403
虜	-5404
蝋	-5405
杏	-5406
條	-5407
窟	-5408
褒	-5409
桶	-5410
耕	-5411
與	-5412
蔑	-5413
醒	-5414
慎	-5415
殻	-5416
蕉	-5417
倶	-5418
奧	-5419
洪	-5420
錯	-5421
曽	-5422
遍	-5423
〔	-5424
伽	-5425
措	-5426
播	-5427
汁	-5428
溢	-5429
迦	-5430
〕	-5431
幣	-5432
曳	-5433
猪	-5434
萩	-5435
慾	-5436
燭	-5437
綴	-5438
藪	-5439
靜	-5440
乍	-5441
些	-5442
寮	-5443
汲	-5444
瀧	-5445
紐	-5446
繊	-5447
臥	-5448
蜂	-5449
詮	-5450
誓	-5451
霞	-5452
佛	-5453
圖	-5454
潤	-5455
簾	-5456
膜	-5457
妾	-5458
槍	-5459
芭	-5460
滴	-5461
臆	-5462
淺	-5463
梢	-5464
汰	-5465
漏	-5466
祥	-5467
藏	-5468
蘆	-5469
註	-5470
邊	-5471
^	-5472
倫	-5473
暁	-5474
歎	-5475
狸	-5476
畠	-5477
艶	-5478
袴	-5479
褐	-5480
吊	-5481
啼	-5482
獨	-5483
肯	-5484
伺	-5485
渦	-5486
痴	-5487
藁	-5488
輯	-5489
恭	-5490
茎	-5491
軟	-5492
零	-5493
紺	-5494
喚	-5495
囚	-5496
愁	-5497
硫	-5498
芥	-5499
蔽	-5500
詠	-5501
靈	-5502
瑞	-5503
睨	-5504
縞	-5505
蜜	-5506
賜	-5507
遮	-5508
需	-5509
–	-5510
寢	-5511
棺	-5512
滿	-5513
癒	-5514
肢	-5515
醉	-5516
鈍	-5517
呈	-5518
淵	-5519
郭	-5520
☆	-5521
廉	-5522
悶	-5523
斷	-5524
燕	-5525
秩	-5526
儒	-5527
喉	-5528
斗	-5529
昆	-5530
洛	-5531
濁	-5532
璃	-5533
髷	-5534
巫	-5535
沸	-5536
洒	-5537
甥	-5538
蹟	-5539
鍋	-5540
驛	-5541
ぇ	-5542
憧	-5543
緋	-5544
頁	-5545
峡	-5546
擦	-5547
斑	-5548
纂	-5549
●	-5550
乎	-5551
峯	-5552
撰	-5553
潰	-5554
髯	-5555
〻	-5556
參	-5557
窪	-5558
腫	-5559
袂	-5560
阻	-5561
牽	-5562
畔	-5563
蛮	-5564
戚	-5565
栃	-5566
薔	-5567
嶺	-5568
帶	-5569
砕	-5570
薇	-5571
鍛	-5572
髭	-5573
鯨	-5574
償	-5575
嗅	-5576
隨	-5577
將	-5578
屏	-5579
巾	-5580
捧	-5581
茫	-5582
豚	-5583
鞭	-5584
磐	-5585
鳳	-5586
°	-5587
俯	-5588
懲	-5589
窺	-5590
輿	-5591
辱	-5592
魏	-5593
勅	-5594
卷	-5595
妨	-5596
拔	-5597
拙	-5598
晋	-5599
翔	-5600
飮	-5601
篤	-5602
綾	-5603
鞍	-5604
<	-5605
燒	-5606
祇	-5607
秦	-5608
媛	-5609
慨	-5610
懇	-5611
欺	-5612
滋	-5613
罵	-5614
雰	-5615
冴	-5616
刃	-5617
寫	-5618
尿	-5619
粘	-5620
鐵	-5621
愈	-5622
擬	-5623
樺	-5624
畢	-5625
腸	-5626
諭	-5627
飜	-5628
唆	-5629
嶽	-5630
憾	-5631
昏	-5632
瑠	-5633
禮	-5634
羨	-5635
芋	-5636
俵	-5637
奔	-5638
屡	-5639
廓	-5640
弄	-5641
柏	-5642
桁	-5643
樽	-5644
漬	-5645
竟	-5646
累	-5647
仇	-5648
冗	-5649
埃	-5650
戟	-5651
碧	-5652
祠	-5653
繪	-5654
薫	-5655
雖	-5656
已	-5657
拵	-5658
朴	-5659
牙	-5660
單	-5661
杜	-5662
耽	-5663
藻	-5664
賣	-5665
贅	-5666
怯	-5667
牢	-5668
狗	-5669
篠	-5670
蛛	-5671
蜘	-5672
吟	-5673
湊	-5674
兆	-5675
垢	-5676
屹	-5677
廿	-5678
煉	-5679
煽	-5680
遙	-5681
顎	-5682
團	-5683
宏	-5684
慧	-5685
煤	-5686
輕	-5687
妄	-5688
婿	-5689
昧	-5690
貿	-5691
餓	-5692
抹	-5693
泡	-5694
糞	-5695
祷	-5696
簿	-5697
剖	-5698
碁	-5699
茲	-5700
茸	-5701
賭	-5702
侮	-5703
債	-5704
跨	-5705
酬	-5706
髄	-5707
彌	-5708
粛	-5709
舶	-5710
諦	-5711
躇	-5712
躊	-5713
錢	-5714
喋	-5715
庶	-5716
椿	-5717
濱	-5718
茅	-5719
ヽ	-5720
厄	-5721
扮	-5722
溪	-5723
燥	-5724
爭	-5725
瞭	-5726
胃	-5727
飴	-5728
慄	-5729
捲	-5730
橘	-5731
濟	-5732
皺	-5733
耶	-5734
謹	-5735
梯	-5736
竣	-5737
總	-5738
胎	-5739
髮	-5740
侶	-5741
克	-5742
恁	-5743
憚	-5744
懷	-5745
淀	-5746
嘲	-5747
巌	-5748
焔	-5749
畿	-5750
盡	-5751
硯	-5752
碗	-5753
舍	-5754
蝠	-5755
蝦	-5756
豫	-5757
倣	-5758
儲	-5759
喪	-5760
圍	-5761
烟	-5762
苛	-5763
蝙	-5764
譚	-5765
韻	-5766
吏	-5767
呟	-5768
囃	-5769
屑	-5770
搬	-5771
肖	-5772
諾	-5773
讐	-5774
𢌞	-5775
堕	-5776
嫉	-5777
擧	-5778
糧	-5779
聽	-5780
苔	-5781
蔓	-5782
訂	-5783
諏	-5784
叉	-5785
董	-5786
蔦	-5787
譬	-5788
准	-5789
妬	-5790
怨	-5791
把	-5792
號	-5793
閲	-5794
雌	-5795
麹	-5796
喩	-5797
岬	-5798
嶋	-5799
揉	-5800
祉	-5801
竿	-5802
酌	-5803
鯉	-5804
倭	-5805
弊	-5806
昂	-5807
爽	-5808
禍	-5809
聳	-5810
臼	-5811
鞄	-5812
檎	-5813
衞	-5814
裳	-5815
逝	-5816
鷺	-5817
【	-5818
】	-5819
寵	-5820
櫛	-5821
牝	-5822
駕	-5823
鱗	-5824
凱	-5825
劫	-5826
噌	-5827
晝	-5828
朋	-5829
桓	-5830
穀	-5831
靄	-5832
堺	-5833
壺	-5834
尠	-5835
迂	-5836
亮	-5837
冥	-5838
吻	-5839
朧	-5840
湘	-5841
舊	-5842
靡	-5843
刹	-5844
咽	-5845
琶	-5846
虞	-5847
蟻	-5848
衡	-5849
襖	-5850
亂	-5851
嫡	-5852
弧	-5853
捻	-5854
栖	-5855
楠	-5856
渇	-5857
漆	-5858
爛	-5859
琵	-5860
疊	-5861
疫	-5862
眩	-5863
葡	-5864
螺	-5865
遼	-5866
鶯	-5867
叶	-5868
班	-5869
翠	-5870
誦	-5871
喝	-5872
屯	-5873
柑	-5874
叢	-5875
敦	-5876
湛	-5877
轉	-5878
邑	-5879
鴎	-5880
ヵ	-5881
凌	-5882
勞	-5883
吃	-5884
妥	-5885
箸	-5886
紗	-5887
趙	-5888
隱	-5889
飢	-5890
佇	-5891
兜	-5892
剰	-5893
厩	-5894
庇	-5895
杭	-5896
癌	-5897
聊	-5898
葺	-5899
剃	-5900
咄	-5901
咳	-5902
妊	-5903
憩	-5904
畏	-5905
粟	-5906
萄	-5907
袈	-5908
逞	-5909
颯	-5910
亘	-5911
嗣	-5912
巳	-5913
權	-5914
蠅	-5915
裟	-5916
鷲	-5917
丞	-5918
罹	-5919
蜀	-5920
訟	-5921
諧	-5922
娯	-5923
帖	-5924
憑	-5925
抄	-5926
斥	-5927
楚	-5928
槽	-5929
芦	-5930
閃	-5931
凧	-5932
嗜	-5933
坑	-5934
拗	-5935
瓢	-5936
稍	-5937
薪	-5938
冶	-5939
圭	-5940
桟	-5941
箪	-5942
豹	-5943
雫	-5944
按	-5945
挺	-5946
枢	-5947
煎	-5948
聡	-5949
萌	-5950
鞋	-5951
伍	-5952
廠	-5953
徽	-5954
楓	-5955
穫	-5956
腎	-5957
苑	-5958
錬	-5959
帥	-5960
戀	-5961
晃	-5962
毫	-5963
践	-5964
嬌	-5965
巖	-5966
炊	-5967
砦	-5968
缶	-5969
曝	-5970
檜	-5971
汐	-5972
蕎	-5973
遁	-5974
頷	-5975
寓	-5976
檀	-5977
牌	-5978
胤	-5979
舷	-5980
遡	-5981
醤	-5982
倦	-5983
喬	-5984
嵌	-5985
廟	-5986
挽	-5987
掩	-5988
杵	-5989
漕	-5990
礁	-5991
肘	-5992
觸	-5993
俥	-5994
咎	-5995
愕	-5996
扶	-5997
渾	-5998
虹	-5999
辭	-6000
遜	-6001
鴉	-6002
麺	-6003
于	-6004
堆	-6005
睦	-6006
蕭	-6007
迅	-6008
>	-6009
傲	-6010
夥	-6011
惟	-6012
抛	-6013
晒	-6014
梗	-6015
梶	-6016
樓	-6017
殴	-6018
碌	-6019
祟	-6020
轟	-6021
醸	-6022
釘	-6023
鋳	-6024
靖	-6025
翅	-6026
蕩	-6027
貪	-6028
驗	-6029
麟	-6030
凶	-6031
唸	-6032
拂	-6033
挫	-6034
沁	-6035
葱	-6036
ヱ	-6037
俤	-6038
噺	-6039
孟	-6040
晦	-6041
繕	-6042
翳	-6043
聘	-6044
蒔	-6045
雁	-6046
默	-6047
几	-6048
劃	-6049
囁	-6050
姐	-6051
巷	-6052
惣	-6053
縋	-6054
縣	-6055
醫	-6056
饗	-6057
鹽	-6058
做	-6059
搖	-6060
撒	-6061
暢	-6062
梓	-6063
淳	-6064
疋	-6065
癪	-6066
盃	-6067
肴	-6068
逗	-6069
卜	-6070
揆	-6071
漲	-6072
芒	-6073
袢	-6074
閥	-6075
卯	-6076
嚴	-6077
姑	-6078
寡	-6079
柵	-6080
殉	-6081
綜	-6082
ü	-6083
堰	-6084
專	-6085
廂	-6086
掠	-6087
濯	-6088
灌	-6089
腺	-6090
赦	-6091
媚	-6092
悼	-6093
擢	-6094
綻	-6095
螢	-6096
假	-6097
循	-6098
曖	-6099
狹	-6100
膏	-6101
藥	-6102
躯	-6103
遽	-6104
ω	-6105
丙	-6106
升	-6107
嘱	-6108
囘	-6109
悄	-6110
汎	-6111
淫	-6112
燻	-6113
絆	-6114
緬	-6115
缺	-6116
脛	-6117
轢	-6118
饒	-6119
騰	-6120
嚢	-6121
壜	-6122
婢	-6123
椀	-6124
歪	-6125
溺	-6126
濠	-6127
肱	-6128
證	-6129
賤	-6130
賦	-6131
鬢	-6132
鮎	-6133
鰭	-6134
鰻	-6135
鳶	-6136
黎	-6137
坦	-6138
奢	-6139
拐	-6140
斧	-6141
樫	-6142
禿	-6143
薙	-6144
襦	-6145
詐	-6146
酢	-6147
陛	-6148
◇	-6149
傭	-6150
吠	-6151
峻	-6152
惧	-6153
拜	-6154
楕	-6155
淑	-6156
祓	-6157
繭	-6158
蒐	-6159
蟲	-6160
諷	-6161
踵	-6162
串	-6163
價	-6164
呻	-6165
嘴	-6166
榎	-6167
贔	-6168
顫	-6169
魯	-6170
α	-6171
ヅ	-6172
仄	-6173
沓	-6174
狽	-6175
畝	-6176
蟇	-6177
鄭	-6178
錠	-6179
鵬	-6180
喘	-6181
娼	-6182
欽	-6183
毀	-6184
痘	-6185
禰	-6186
莞	-6187
諫	-6188
鎧	-6189
齎	-6190
△	-6191
屓	-6192
憫	-6193
據	-6194
紡	-6195
荻	-6196
葵	-6197
蓬	-6198
蚕	-6199
頤	-6200
á	-6201
◯	-6202
凸	-6203
劍	-6204
拷	-6205
擲	-6206
歐	-6207
溌	-6208
牟	-6209
菫	-6210
裝	-6211
褄	-6212
鋸	-6213
嗚	-6214
壬	-6215
姻	-6216
娠	-6217
寅	-6218
庸	-6219
涌	-6220
絲	-6221
臘	-6222
萎	-6223
蝕	-6224
蹄	-6225
釋	-6226
凉	-6227
凭	-6228
叡	-6229
峨	-6230
欅	-6231
瞑	-6232
綬	-6233
蓑	-6234
壓	-6235
炬	-6236
疇	-6237
竝	-6238
詔	-6239
賓	-6240
銚	-6241
鴻	-6242
麥	-6243
凹	-6244
卸	-6245
哨	-6246
壌	-6247
媼	-6248
嬰	-6249
彭	-6250
彷	-6251
托	-6252
挾	-6253
泌	-6254
窒	-6255
蛾	-6256
馭	-6257
俸	-6258
唾	-6259
嚇	-6260
填	-6261
寞	-6262
恍	-6263
惰	-6264
扨	-6265
桔	-6266
梟	-6267
榛	-6268
濫	-6269
羞	-6270
萱	-6271
蜻	-6272
謬	-6273
鍬	-6274
寶	-6275
嵩	-6276
懺	-6277
檻	-6278
游	-6279
瞼	-6280
穢	-6281
袷	-6282
覽	-6283
鸚	-6284
姪	-6285
攀	-6286
矮	-6287
箒	-6288
糊	-6289
肪	-6290
腑	-6291
蔡	-6292
蹲	-6293
俣	-6294
壯	-6295
彙	-6296
抒	-6297
捷	-6298
欝	-6299
稻	-6300
腔	-6301
蕪	-6302
蛉	-6303
躅	-6304
釧	-6305
鞘	-6306
騨	-6307
騷	-6308
鯛	-6309
偲	-6310
呶	-6311
嗟	-6312
撥	-6313
曙	-6314
甕	-6315
瘍	-6316
繻	-6317
艘	-6318
莊	-6319
裔	-6320
諺	-6321
踪	-6322
躑	-6323
辷	-6324
顰	-6325
寐	-6326
搾	-6327
濤	-6328
爐	-6329
璧	-6330
笥	-6331
籐	-6332
蝉	-6333
訛	-6334
諱	-6335
兇	-6336
叛	-6337
彈	-6338
彗	-6339
拉	-6340
燵	-6341
爬	-6342
礫	-6343
輌	-6344
齒	-6345
•	-6346
倚	-6347
厘	-6348
嵯	-6349
檢	-6350
毘	-6351
燦	-6352
珊	-6353
痺	-6354
絨	-6355
舐	-6356
葦	-6357
詫	-6358
謳	-6359
郁	-6360
鋏	-6361
匀	-6362
厨	-6363
啣	-6364
嗤	-6365
壱	-6366
壽	-6367
寥	-6368
營	-6369
犀	-6370
瘤	-6371
碓	-6372
祕	-6373
租	-6374
遲	-6375
雉	-6376
⚡	-6377
ヰ	-6378
侠	-6379
墾	-6380
姦	-6381
幟	-6382
扁	-6383
櫓	-6384
殷	-6385
瑚	-6386
竈	-6387
莽	-6388
虔	-6389
豈	-6390
跫	-6391
錆	-6392
騙	-6393
鵡	-6394
齊	-6395
@	-6396
β	-6397
僻	-6398
崔	-6399
弔	-6400
敲	-6401
毅	-6402
燐	-6403
矯	-6404
竪	-6405
繩	-6406
頽	-6407
齋	-6408
’	-6409
咸	-6410
截	-6411
捌	-6412
杓	-6413
溯	-6414
瀑	-6415
灘	-6416
疹	-6417
癇	-6418
窃	-6419
脆	-6420
菖	-6421
藉	-6422
褪	-6423
贋	-6424
辨	-6425
辯	-6426
醍	-6427
鴈	-6428
▲	-6429
匍	-6430
恢	-6431
攫	-6432
曠	-6433
柢	-6434
榴	-6435
滲	-6436
焉	-6437
狡	-6438
珈	-6439
琲	-6440
痒	-6441
箕	-6442
絃	-6443
肋	-6444
釦	-6445
隧	-6446
鞜	-6447
顯	-6448
í	-6449
ó	-6450
册	-6451
峙	-6452
朶	-6453
梵	-6454
泛	-6455
濶	-6456
玲	-6457
粥	-6458
緻	-6459
繍	-6460
聚	-6461
醐	-6462
鱈	-6463
ä	-6464
‐	-6465
匿	-6466
區	-6467
哭	-6468
屠	-6469
岱	-6470
戲	-6471
朦	-6472
棘	-6473
渚	-6474
笊	-6475
虱	-6476
襄	-6477
跣	-6478
鉾	-6479
鵞	-6480
亞	-6481
屬	-6482
憬	-6483
槌	-6484
欣	-6485
沒	-6486
淘	-6487
猾	-6488
癩	-6489
砧	-6490
筐	-6491
肆	-6492
襷	-6493
諜	-6494
赭	-6495
錐	-6496
閻	-6497
雞	-6498
́	-6499
亙	-6500
喇	-6501
悸	-6502
摸	-6503
曼	-6504
朔	-6505
楢	-6506
榮	-6507
樋	-6508
澁	-6509
瓊	-6510
眸	-6511
睫	-6512
繃	-6513
耀	-6514
苅	-6515
茄	-6516
薯	-6517
蛍	-6518
謁	-6519
赫	-6520
鋒	-6521
鞠	-6522
鬚	-6523
麿	-6524
冑	-6525
啜	-6526
寇	-6527
徊	-6528
惱	-6529
掬	-6530
撞	-6531
擡	-6532
暈	-6533
楯	-6534
樵	-6535
瞥	-6536
筵	-6537
絣	-6538
蕾	-6539
衷	-6540
闊	-6541
隋	-6542
鮒	-6543
夙	-6544
孕	-6545
孵	-6546
攘	-6547
收	-6548
歿	-6549
汀	-6550
盜	-6551
禊	-6552
篁	-6553
罷	-6554
苞	-6555
袁	-6556
踞	-6557
鑿	-6558
韋	-6559
顛	-6560
魁	-6561
鵜	-6562
黨	-6563
擴	-6564
棹	-6565
櫃	-6566
瘡	-6567
稜	-6568
筏	-6569
腋	-6570
苫	-6571
蕃	-6572
險	-6573
霽	-6574
餐	-6575
鮨	-6576
佑	-6577
俟	-6578
冀	-6579
咬	-6580
壞	-6581
嶮	-6582
戊	-6583
撓	-6584
榊	-6585
熙	-6586
甫	-6587
粂	-6588
茜	-6589
訝	-6590
誂	-6591
賄	-6592
軋	-6593
鄙	-6594
鋪	-6595
閏	-6596
魄	-6597
鹸	-6598
丼	-6599
啄	-6600
址	-6601
帷	-6602
徨	-6603
慘	-6604
慥	-6605
揷	-6606
盂	-6607
翫	-6608
脣	-6609
艸	-6610
陝	-6611
驅	-6612
鬪	-6613
鰐	-6614
黍	-6615
◎	-6616
ぃ	-6617
允	-6618
唖	-6619
埒	-6620
椽	-6621
氈	-6622
潛	-6623
疵	-6624
穗	-6625
笏	-6626
籾	-6627
繼	-6628
肚	-6629
苟	-6630
誅	-6631
軈	-6632
鉦	-6633
饅	-6634
駁	-6635
鰯	-6636
★	-6637
《	-6638
》	-6639
侘	-6640
偕	-6641
哺	-6642
啻	-6643
捗	-6644
曉	-6645
樗	-6646
歡	-6647
淨	-6648
潘	-6649
疏	-6650
粹	-6651
糟	-6652
蕨	-6653
蠢	-6654
豐	-6655
酉	-6656
酎	-6657
錫	-6658
隼	-6659
麽	-6660
ö	-6661
ا	-6662
堯	-6663
堵	-6664
徑	-6665
慇	-6666
懃	-6667
掏	-6668
旱	-6669
槐	-6670
涸	-6671
渺	-6672
漱	-6673
澱	-6674
灣	-6675
窯	-6676
糾	-6677
罐	-6678
谿	-6679
鋤	-6680
陷	-6681
餡	-6682
饑	-6683
鬘	-6684
−	-6685
♥	-6686
哥	-6687
啖	-6688
娶	-6689
宕	-6690
屆	-6691
幀	-6692
徘	-6693
懶	-6694
栓	-6695
滸	-6696
猥	-6697
獻	-6698
畦	-6699
痢	-6700
瞻	-6701
膽	-6702
蜃	-6703
諮	-6704
謠	-6705
迚	-6706
霰	-6707
靭	-6708
饉	-6709
齡	-6710
è	-6711
丑	-6712
囀	-6713
坡	-6714
壕	-6715
嶼	-6716
庚	-6717
廢	-6718
彳	-6719
擔	-6720
梧	-6721
橇	-6722
沫	-6723
淩	-6724
漿	-6725
瀕	-6726
碍	-6727
竦	-6728
竺	-6729
綽	-6730
脹	-6731
腦	-6732
臍	-6733
舘	-6734
芹	-6735
荊	-6736
蕊	-6737
貶	-6738
跪	-6739
蹈	-6740
鍮	-6741
闢	-6742
顆	-6743
鰹	-6744
ā	-6745
о	-6746
仆	-6747
倆	-6748
倖	-6749
凪	-6750
攣	-6751
斤	-6752
柩	-6753
浚	-6754
渕	-6755
皐	-6756
絢	-6757
繞	-6758
腿	-6759
艱	-6760
莨	-6761
萼	-6762
蝸	-6763
躙	-6764
辣	-6765
鉤	-6766
鼈	-6767
а	-6768
哩	-6769
埴	-6770
奄	-6771
姥	-6772
弛	-6773
悧	-6774
柘	-6775
梱	-6776
椒	-6777
楳	-6778
榜	-6779
氾	-6780
浙	-6781
禦	-6782
艷	-6783
菰	-6784
趾	-6785
躰	-6786
錨	-6787
顋	-6788
个	-6789
刎	-6790
勸	-6791
匡	-6792
叭	-6793
墟	-6794
弗	-6795
怎	-6796
搏	-6797
搦	-6798
棗	-6799
珂	-6800
痙	-6801
睜	-6802
箔	-6803
籬	-6804
縊	-6805
縱	-6806
纔	-6807
蛭	-6808
跋	-6809
蹂	-6810
陋	-6811
隘	-6812
〆	-6813
〒	-6814
倅	-6815
呵	-6816
埠	-6817
奎	-6818
孰	-6819
巽	-6820
擾	-6821
斃	-6822
旁	-6823
汪	-6824
沃	-6825
澪	-6826
盥	-6827
盧	-6828
眇	-6829
禪	-6830
箋	-6831
簇	-6832
芙	-6833
蓼	-6834
蕗	-6835
蚓	-6836
蚯	-6837
轍	-6838
銜	-6839
飄	-6840
駭	-6841
鮫	-6842
ν	-6843
♡	-6844
゚	-6845
剌	-6846
叟	-6847
嘔	-6848
弐	-6849
搗	-6850
摯	-6851
旺	-6852
框	-6853
棍	-6854
槻	-6855
樟	-6856
涜	-6857
澹	-6858
濛	-6859
瘠	-6860
膠	-6861
茉	-6862
莉	-6863
葭	-6864
諒	-6865
賽	-6866
鍾	-6867
駝	-6868
驕	-6869
鰌	-6870
ب	-6871
ぅ	-6872
佩	-6873
俎	-6874
匁	-6875
匙	-6876
懼	-6877
懿	-6878
攸	-6879
柚	-6880
橙	-6881
沌	-6882
秤	-6883
稗	-6884
筮	-6885
舵	-6886
薨	-6887
蛤	-6888
蛸	-6889
譽	-6890
貉	-6891
跛	-6892
邁	-6893
酋	-6894
閨	-6895
髙	-6896
黴	-6897
鼬	-6898
┣	-6899
侃	-6900
奕	-6901
婉	-6902
慳	-6903
棕	-6904
洟	-6905
濕	-6906
瀟	-6907
熾	-6908
獸	-6909
盪	-6910
眷	-6911
窩	-6912
縷	-6913
纒	-6914
舁	-6915
舅	-6916
舳	-6917
芯	-6918
茹	-6919
蒋	-6920
譃	-6921
賠	-6922
迸	-6923
鉞	-6924
鎭	-6925
鴒	-6926
鼎	-6927
à	-6928
ú	-6929
▽	-6930
塑	-6931
廬	-6932
恃	-6933
恣	-6934
椰	-6935
槇	-6936
殼	-6937
滯	-6938
濘	-6939
灼	-6940
簪	-6941
籤	-6942
臂	-6943
蝿	-6944
衙	-6945
襞	-6946
諡	-6947
赧	-6948
蹊	-6949
逍	-6950
銑	-6951
鎗	-6952
鶺	-6953
δ	-6954
ل	-6955
ن	-6956
و	-6957
凋	-6958
墮	-6959
庖	-6960
悴	-6961
捏	-6962
炙	-6963
疼	-6964
痰	-6965
矜	-6966
粕	-6967
絽	-6968
罠	-6969
肇	-6970
茘	-6971
荼	-6972
莟	-6973
蚤	-6974
誼	-6975
蹠	-6976
逼	-6977
鑵	-6978
陪	-6979
頒	-6980
顱	-6981
駱	-6982
鵠	-6983
ū	-6984
μ	-6985
│	-6986
佗	-6987
僞	-6988
剪	-6989
吝	-6990
吼	-6991
哄	-6992
嚀	-6993
坤	-6994
姜	-6995
娑	-6996
娜	-6997
嬪	-6998
幇	-6999
扈	-7000
櫂	-7001
渥	-7002
爰	-7003
獏	-7004
珀	-7005
甦	-7006
疱	-7007
皓	-7008
瞠	-7009
瞰	-7010
矩	-7011
磊	-7012
禽	-7013
稙	-7014
糠	-7015
翡	-7016
肛	-7017
腱	-7018
蓉	-7019
蓙	-7020
薊	-7021
蛋	-7022
輛	-7023
逓	-7024
遑	-7025
鈔	-7026
鍔	-7027
雙	-7028
髣	-7029
髴	-7030
е	-7031
什	-7032
傅	-7033
叮	-7034
呀	-7035
嘯	-7036
夭	-7037
岨	-7038
彿	-7039
愍	-7040
憔	-7041
效	-7042
杷	-7043
歇	-7044
涎	-7045
潭	-7046
牀	-7047
犇	-7048
琥	-7049
癡	-7050
矣	-7051
碇	-7052
碎	-7053
穩	-7054
笄	-7055
笙	-7056
繙	-7057
罎	-7058
胚	-7059
臀	-7060
蜩	-7061
襤	-7062
辟	-7063
逅	-7064
邂	-7065
鑛	-7066
鑽	-7067
閤	-7068
餉	-7069
驟	-7070
鯖	-7071
鷄	-7072
龜	-7073
ŋ	-7074
Δ	-7075
─	-7076
┫	-7077
僭	-7078
勒	-7079
匐	-7080
嘶	-7081
塘	-7082
屁	-7083
巓	-7084
忰	-7085
懊	-7086
揄	-7087
揖	-7088
揶	-7089
攪	-7090
樅	-7091
殲	-7092
毬	-7093
泪	-7094
淮	-7095
滔	-7096
漾	-7097
濾	-7098
犧	-7099
猷	-7100
甍	-7101
痣	-7102
睾	-7103
瞞	-7104
稔	-7105
篭	-7106
籃	-7107
縹	-7108
翰	-7109
耻	-7110
膵	-7111
臟	-7112
苺	-7113
蜥	-7114
訃	-7115
趨	-7116
躁	-7117
躾	-7118
鈎	-7119
闍	-7120
鴛	-7121
﨟	-7122
←	-7123
┓	-7124
凛	-7125
勵	-7126
奸	-7127
媽	-7128
弩	-7129
擽	-7130
柾	-7131
梳	-7132
棧	-7133
檣	-7134
燗	-7135
猩	-7136
獵	-7137
磔	-7138
羹	-7139
耗	-7140
耿	-7141
腥	-7142
膿	-7143
薮	-7144
蜴	-7145
蜿	-7146
蟠	-7147
裙	-7148
褸	-7149
迹	-7150
雍	-7151
鮭	-7152
鴦	-7153
鶉	-7154
κ	-7155
π	-7156
〽	-7157
倹	-7158
兀	-7159
冨	-7160
嚥	-7161
塲	-7162
夾	-7163
崗	-7164
帛	-7165
并	-7166
恬	-7167
惠	-7168
慟	-7169
抓	-7170
挂	-7171
掉	-7172
枇	-7173
楔	-7174
泄	-7175
涅	-7176
漑	-7177
瑣	-7178
瑪	-7179
疳	-7180
砥	-7181
綏	-7182
聟	-7183
脩	-7184
蟄	-7185
讚	-7186
贄	-7187
踉	-7188
闌	-7189
頌	-7190
鰓	-7191
麾	-7192
·	-7193
ç	-7194
ī	-7195
γ	-7196
н	-7197
م	-7198
‘	-7199
┌	-7200
└	-7201
■	-7202
◉	-7203
亨	-7204
傀	-7205
儡	-7206
冤	-7207
哈	-7208
堡	-7209
姚	-7210
姨	-7211
孃	-7212
宥	-7213
岑	-7214
徂	-7215
愴	-7216
憺	-7217
敍	-7218
斡	-7219
杢	-7220
欒	-7221
款	-7222
煌	-7223
煖	-7224
熔	-7225
狎	-7226
獺	-7227
琳	-7228
穉	-7229
簀	-7230
粱	-7231
紘	-7232
綸	-7233
耆	-7234
茗	-7235
藷	-7236
蟆	-7237
衾	-7238
誡	-7239
讒	-7240
賈	-7241
蹌	-7242
轡	-7243
郤	-7244
鐙	-7245
黝	-7246
﨑	-7247
𫝹	-7248
â	-7249
ي	-7250
┤	-7251
佃	-7252
凜	-7253
劈	-7254
厠	-7255
咀	-7256
怜	-7257
怡	-7258
悚	-7259
愧	-7260
拱	-7261
掾	-7262
枉	-7263
棠	-7264
槃	-7265
瀾	-7266
煕	-7267
犢	-7268
甞	-7269
畷	-7270
畸	-7271
眗	-7272
祢	-7273
禎	-7274
稟	-7275
窶	-7276
簑	-7277
絳	-7278
縺	-7279
舜	-7280
艀	-7281
艤	-7282
莚	-7283
虻	-7284
褌	-7285
詛	-7286
讓	-7287
踰	-7288
迭	-7289
鄰	-7290
酪	-7291
鏑	-7292
隕	-7293
霙	-7294
靱	-7295
驢	-7296
魃	-7297
鯰	-7298
鰈	-7299
в	-7300
р	-7301
┏	-7302
▼	-7303
ぉ	-7304
亥	-7305
伜	-7306
偸	-7307
凩	-7308
凰	-7309
刳	-7310
劾	-7311
匇	-7312
咫	-7313
噤	-7314
噪	-7315
塙	-7316
娩	-7317
婁	-7318
寳	-7319
戌	-7320
戮	-7321
拇	-7322
拿	-7323
晁	-7324
桝	-7325
櫚	-7326
灸	-7327
瑙	-7328
癲	-7329
碩	-7330
箭	-7331
簗	-7332
罅	-7333
罩	-7334
芬	-7335
莱	-7336
蜆	-7337
蜷	-7338
蟀	-7339
蟋	-7340
襯	-7341
詁	-7342
逡	-7343
邱	-7344
酥	-7345
錘	-7346
閾	-7347
颪	-7348
髏	-7349
髑	-7350
鬨	-7351
鮪	-7352
鸞	-7353
ê	-7354
า	-7355
仍	-7356
俚	-7357
卅	-7358
卦	-7359
呎	-7360
咋	-7361
喙	-7362
嘸	-7363
噫	-7364
嚆	-7365
墺	-7366
婀	-7367
嬶	-7368
廳	-7369
彪	-7370
徠	-7371
愼	-7372
拮	-7373
插	-7374
擇	-7375
杣	-7376
杳	-7377
槙	-7378
毯	-7379
洵	-7380
滓	-7381
犍	-7382
玻	-7383
珪	-7384
盞	-7385
眦	-7386
砺	-7387
祿	-7388
穣	-7389
窄	-7390
筍	-7391
肅	-7392
荏	-7393
莢	-7394
蔬	-7395
蝮	-7396
蠻	-7397
衍	-7398
衒	-7399
谺	-7400
邃	-7401
鉈	-7402
鑼	-7403
飩	-7404
饂	-7405
鴌	-7406
î	-7407
л	-7408
ิ	-7409
ヮ	-7410
佼	-7411
儂	-7412
兗	-7413
剋	-7414
剽	-7415
喀	-7416
埓	-7417
壻	-7418
媾	-7419
宦	-7420
彡	-7421
恕	-7422
悍	-7423
捩	-7424
掟	-7425
斂	-7426
晏	-7427
枷	-7428
櫟	-7429
歟	-7430
渭	-7431
漉	-7432
焙	-7433
燼	-7434
玖	-7435
琢	-7436
礙	-7437
禾	-7438
站	-7439
筧	-7440
紊	-7441
羈	-7442
耄	-7443
聾	-7444
舒	-7445
苕	-7446
蠣	-7447
衢	-7448
衲	-7449
褻	-7450
覘	-7451
跟	-7452
遵	-7453
醗	-7454
鋲	-7455
鏃	-7456
鏤	-7457
霄	-7458
韶	-7459
馨	-7460
驥	-7461
鮓	-7462
鱸	-7463
麭	-7464
𤢖	-7465
É	-7466
ë	-7467
λ	-7468
σ	-7469
к	-7470
ی	-7471
ร	-7472
—	-7473
佚	-7474
侏	-7475
决	-7476
匆	-7477
匈	-7478
喃	-7479
嗄	-7480
噸	-7481
嫂	-7482
弴	-7483
恙	-7484
悒	-7485
懦	-7486
戎	-7487
捍	-7488
捺	-7489
擣	-7490
昵	-7491
晰	-7492
楷	-7493
涵	-7494
淆	-7495
漣	-7496
澎	-7497
炒	-7498
獰	-7499
璠	-7500
瓏	-7501
疣	-7502
痲	-7503
皰	-7504
眤	-7505
瞶	-7506
磧	-7507
穆	-7508
縅	-7509
繹	-7510
罌	-7511
罫	-7512
羂	-7513
萠	-7514
蒡	-7515
蛆	-7516
蜒	-7517
詭	-7518
賂	-7519
躓	-7520
邇	-7521
鄧	-7522
鄴	-7523
鎚	-7524
霖	-7525
鞆	-7526
韮	-7527
驀	-7528
鮑	-7529
鯒	-7530
鴫	-7531
鼾	-7532
ß	-7533
ã	-7534
ł	-7535
ο	-7536
и	-7537
ک	-7538
ヷ	-7539
ヾ	-7540
亢	-7541
勁	-7542
咏	-7543
咒	-7544
塒	-7545
塹	-7546
姝	-7547
宍	-7548
尹	-7549
嵬	-7550
彬	-7551
徉	-7552
徜	-7553
愾	-7554
慊	-7555
懣	-7556
戈	-7557
搜	-7558
摧	-7559
擂	-7560
旛	-7561
晉	-7562
晨	-7563
暉	-7564
朕	-7565
梭	-7566
樒	-7567
橡	-7568
渟	-7569
潢	-7570
瀉	-7571
瀋	-7572
烙	-7573
熨	-7574
狒	-7575
瓚	-7576
瘴	-7577
禹	-7578
糺	-7579
紆	-7580
聰	-7581
范	-7582
菟	-7583
蝗	-7584
袍	-7585
褥	-7586
覡	-7587
謔	-7588
賺	-7589
躬	-7590
輻	-7591
轅	-7592
鈿	-7593
錚	-7594
鏞	-7595
鞏	-7596
餞	-7597
髻	-7598
鹵	-7599
麒	-7600
麝	-7601
φ	-7602
ر	-7603
س	-7604
′	-7605
倨	-7606
刄	-7607
剩	-7608
劒	-7609
劔	-7610
匝	-7611
啾	-7612
嘛	-7613
嚔	-7614
嚮	-7615
嚼	-7616
囂	-7617
婪	-7618
孑	-7619
廼	-7620
愬	-7621
慷	-7622
懈	-7623
抉	-7624
抔	-7625
擅	-7626
旒	-7627
曩	-7628
楡	-7629
渫	-7630
溂	-7631
滊	-7632
狛	-7633
甸	-7634
皙	-7635
穽	-7636
笞	-7637
胝	-7638
艮	-7639
芍	-7640
蒿	-7641
薗	-7642
蘊	-7643
蠱	-7644
詢	-7645
諢	-7646
謫	-7647
贏	-7648
贖	-7649
跼	-7650
蹉	-7651
蹤	-7652
酊	-7653
醇	-7654
銷	-7655
鍍	-7656
鎬	-7657
阮	-7658
隴	-7659
靠	-7660
頊	-7661
顬	-7662
顳	-7663
馮	-7664
鬣	-7665
鬮	-7666
鰺	-7667
鱒	-7668
鵯	-7669
ō	-7670
Α	-7671
ρ	-7672
د	-7673
พ	-7674
佞	-7675
俘	-7676
偃	-7677
僑	-7678
卍	-7679
堊	-7680
墻	-7681
姊	-7682
宸	-7683
寃	-7684
尨	-7685
峴	-7686
峽	-7687
崑	-7688
廚	-7689
弼	-7690
怙	-7691
惶	-7692
扼	-7693
擱	-7694
敞	-7695
暹	-7696
梠	-7697
槨	-7698
槿	-7699
檗	-7700
漓	-7701
瀝	-7702
炸	-7703
猜	-7704
眄	-7705
瞋	-7706
矗	-7707
祚	-7708
稈	-7709
籟	-7710
紇	-7711
羸	-7712
翎	-7713
脾	-7714
膸	-7715
舫	-7716
莖	-7717
蒻	-7718
蓆	-7719
袱	-7720
覊	-7721
訥	-7722
誨	-7723
諳	-7724
謐	-7725
謨	-7726
讎	-7727
