<unk>	0
<s>	0
</s>	0
<pad>	0
<tool_call>	0
</tool_call>	0
<tool_response>	0
</tool_response>	0
<think>	0
</think>	0
<memory>	0
</memory>	0
<0x00>	0
<0x01>	0
<0x02>	0
<0x03>	0
<0x04>	0
<0x05>	0
<0x06>	0
<0x07>	0
<0x08>	0
<0x09>	0
<0x0A>	0
<0x0B>	0
<0x0C>	0
<0x0D>	0
<0x0E>	0
<0x0F>	0
<0x10>	0
<0x11>	0
<0x12>	0
<0x13>	0
<0x14>	0
<0x15>	0
<0x16>	0
<0x17>	0
<0x18>	0
<0x19>	0
<0x1A>	0
<0x1B>	0
<0x1C>	0
<0x1D>	0
<0x1E>	0
<0x1F>	0
<0x20>	0
<0x21>	0
<0x22>	0
<0x23>	0
<0x24>	0
<0x25>	0
<0x26>	0
<0x27>	0
<0x28>	0
<0x29>	0
<0x2A>	0
<0x2B>	0
<0x2C>	0
<0x2D>	0
<0x2E>	0
<0x2F>	0
<0x30>	0
<0x31>	0
<0x32>	0
<0x33>	0
<0x34>	0
<0x35>	0
<0x36>	0
<0x37>	0
<0x38>	0
<0x39>	0
<0x3A>	0
<0x3B>	0
<0x3C>	0
<0x3D>	0
<0x3E>	0
<0x3F>	0
<0x40>	0
<0x41>	0
<0x42>	0
<0x43>	0
<0x44>	0
<0x45>	0
<0x46>	0
<0x47>	0
<0x48>	0
<0x49>	0
<0x4A>	0
<0x4B>	0
<0x4C>	0
<0x4D>	0
<0x4E>	0
<0x4F>	0
<0x50>	0
<0x51>	0
<0x52>	0
<0x53>	0
<0x54>	0
<0x55>	0
<0x56>	0
<0x57>	0
<0x58>	0
<0x59>	0
<0x5A>	0
<0x5B>	0
<0x5C>	0
<0x5D>	0
<0x5E>	0
<0x5F>	0
<0x60>	0
<0x61>	0
<0x62>	0
<0x63>	0
<0x64>	0
<0x65>	0
<0x66>	0
<0x67>	0
<0x68>	0
<0x69>	0
<0x6A>	0
<0x6B>	0
<0x6C>	0
<0x6D>	0
<0x6E>	0
<0x6F>	0
<0x70>	0
<0x71>	0
<0x72>	0
<0x73>	0
<0x74>	0
<0x75>	0
<0x76>	0
<0x77>	0
<0x78>	0
<0x79>	0
<0x7A>	0
<0x7B>	0
<0x7C>	0
<0x7D>	0
<0x7E>	0
<0x7F>	0
<0x80>	0
<0x81>	0
<0x82>	0
<0x83>	0
<0x84>	0
<0x85>	0
<0x86>	0
<0x87>	0
<0x88>	0
<0x89>	0
<0x8A>	0
<0x8B>	0
<0x8C>	0
<0x8D>	0
<0x8E>	0
<0x8F>	0
<0x90>	0
<0x91>	0
<0x92>	0
<0x93>	0
<0x94>	0
<0x95>	0
<0x96>	0
<0x97>	0
<0x98>	0
<0x99>	0
<0x9A>	0
<0x9B>	0
<0x9C>	0
<0x9D>	0
<0x9E>	0
<0x9F>	0
<0xA0>	0
<0xA1>	0
<0xA2>	0
<0xA3>	0
<0xA4>	0
<0xA5>	0
<0xA6>	0
<0xA7>	0
<0xA8>	0
<0xA9>	0
<0xAA>	0
<0xAB>	0
<0xAC>	0
<0xAD>	0
<0xAE>	0
<0xAF>	0
<0xB0>	0
<0xB1>	0
<0xB2>	0
<0xB3>	0
<0xB4>	0
<0xB5>	0
<0xB6>	0
<0xB7>	0
<0xB8>	0
<0xB9>	0
<0xBA>	0
<0xBB>	0
<0xBC>	0
<0xBD>	0
<0xBE>	0
<0xBF>	0
<0xC0>	0
<0xC1>	0
<0xC2>	0
<0xC3>	0
<0xC4>	0
<0xC5>	0
<0xC6>	0
<0xC7>	0
<0xC8>	0
<0xC9>	0
<0xCA>	0
<0xCB>	0
<0xCC>	0
<0xCD>	0
<0xCE>	0
<0xCF>	0
<0xD0>	0
<0xD1>	0
<0xD2>	0
<0xD3>	0
<0xD4>	0
<0xD5>	0
<0xD6>	0
<0xD7>	0
<0xD8>	0
<0xD9>	0
<0xDA>	0
<0xDB>	0
<0xDC>	0
<0xDD>	0
<0xDE>	0
<0xDF>	0
<0xE0>	0
<0xE1>	0
<0xE2>	0
<0xE3>	0
<0xE4>	0
<0xE5>	0
<0xE6>	0
<0xE7>	0
<0xE8>	0
<0xE9>	0
<0xEA>	0
<0xEB>	0
<0xEC>	0
<0xED>	0
<0xEE>	0
<0xEF>	0
<0xF0>	0
<0xF1>	0
<0xF2>	0
<0xF3>	0
<0xF4>	0
<0xF5>	0
<0xF6>	0
<0xF7>	0
<0xF8>	0
<0xF9>	0
<0xFA>	0
<0xFB>	0
<0xFC>	0
<0xFD>	0
<0xFE>	0
<0xFF>	0
it	-0
ar	-1
して	-2
el	-3
ex	-4
in	-5
▁r	-6
AI	-7
In	-8
an	-9
as	-10
et	-11
mo	-12
us	-13
▁-	-14
▁c	-15
▁d	-16
▁v	-17
する	-18
であ	-19
Int	-20
exus	-21
▁Int	-22
▁var	-23
&&	-24
ed	-25
jo	-26
om	-27
st	-28
te	-29
un	-30
▁p	-31
計算	-32
量子	-33
ans	-34
git	-35
▁&&	-36
である	-37
▁run	-38
Nexus	-39
NexusAI	-40
')	-41
):	-42
//	-43
ef	-44
en	-45
ht	-46
ia	-47
ik	-48
il	-49
lo	-50
ma	-51
me	-52
or	-53
ps	-54
ur	-55
▁'	-56
▁=	-57
▁M	-58
▁T	-59
▁b	-60
▁q	-61
いま	-62
くだ	-63
ござ	-64
さい	-65
した	-66
しま	-67
によ	-68
の重	-69
を行	-70
を調	-71
イン	-72
コー	-73
ット	-74
ュー	-75
処理	-76
学習	-77
言語	-78
関数	-79
://	-80
arg	-81
ase	-82
com	-83
ele	-84
htt	-85
iki	-86
▁--	-87
▁ma	-88
を行う	-89
を調査	-90
コード	-91
計算機	-92
mojo	-93
rele	-94
test	-95
wiki	-96
▁Tit	-97
▁def	-98
▁htt	-99
▁ret	-100
ください	-101
ございま	-102
▁main	-103
▁https	-104
release	-105
▁Titans	-106
('	-107
./	-108
='	-109
Ar	-110
Go	-111
LL	-112
LP	-113
Me	-114
Tr	-115
at	-116
ce	-117
ct	-118
cu	-119
ep	-120
ev	-121
fa	-122
fi	-123
gl	-124
gr	-125
hu	-126
ig	-127
is	-128
ix	-129
ja	-130
ne	-131
pr	-132
pt	-133
py	-134
ri	-135
ru	-136
ry	-137
sy	-138
ti	-139
um	-140
{-	-141
▁*	-142
▁+	-143
▁B	-144
▁F	-145
▁w	-146
▁x	-147
▁y	-148
▁|	-149
▁あ	-150
▁テ	-151
▁ユ	-152
▁人	-153
▁東	-154
▁機	-155
▁自	-156
いつ	-157
いで	-158
うか	-159
うち	-160
おけ	-161
お申	-162
から	-163
がと	-164
が正	-165
きた	-166
こと	-167
この	-168
こん	-169
ご不	-170
しょ	-171
し付	-172
じん	-173
ず関	-174
せと	-175
ため	-176
ちは	-177
って	-178
つれ	-179
では	-180
でも	-181
で記	-182
で超	-183
とは	-184
と活	-185
など	-186
な情	-187
な点	-188
にし	-189
にサ	-190
に制	-191
に通	-192
ね合	-193
のう	-194
のみ	-195
のバ	-196
の中	-197
の出	-198
の文	-199
の特	-200
の総	-201
の質	-202
の首	-203
は推	-204
は日	-205
は重	-206
みを	-207
みパ	-208
もよ	-209
るニ	-210
る知	-211
ろし	-212
をオ	-213
をコ	-214
を不	-215
を利	-216
を基	-217
を定	-218
を実	-219
を提	-220
を検	-221
ァイ	-222
アー	-223
イズ	-224
ェク	-225
キテ	-226
クは	-227
クチ	-228
コン	-229
ザー	-230
シス	-231
スト	-232
タは	-233
テム	-234
デル	-235
プラ	-236
プロ	-237
ベー	-238
ペー	-239
メモ	-240
メー	-241
ラル	-242
ワー	-243
ンラ	-244
下法	-245
世代	-246
並列	-247
中央	-248
乗算	-249
今日	-250
代田	-251
修正	-252
内容	-253
別区	-254
力学	-255
加減	-256
勾配	-257
在の	-258
変更	-259
多層	-260
大規	-261
工知	-262
形な	-263
心都	-264
性化	-265
成る	-266
政治	-267
文化	-268
来事	-269
港区	-270
無限	-271
発展	-272
盤と	-273
省電	-274
経済	-275
誤差	-276
論時	-277
近似	-278
連フ	-279
非線	-280
!')	-281
():	-282
/')	-283
Goo	-284
LLM	-285
NLP	-286
Net	-287
and	-288
ash	-289
ass	-290
cia	-291
del	-292
ecu	-293
elf	-294
ell	-295
eng	-296
eve	-297
for	-298
gle	-299
hub	-300
ild	-301
ine	-302
ing	-303
int	-304
ith	-305
ixi	-306
mem	-307
mer	-308
ojo	-309
org	-310
ped	-311
syu	-312
url	-313
urn	-314
▁./	-315
▁Ar	-316
▁bu	-317
▁cd	-318
▁fa	-319
▁gr	-320
▁is	-321
▁pr	-322
▁st	-323
▁あり	-324
▁ユー	-325
▁東京	-326
▁機械	-327
▁自然	-328
▁量子	-329
がとう	-330
が正常	-331
こうち	-332
ことで	-333
こんに	-334
ご不明	-335
したら	-336
して超	-337
します	-338
し付け	-339
であり	-340
で学習	-341
で記憶	-342
な情報	-343
な点が	-344
におけ	-345
に制約	-346
に通過	-347
ね合わ	-348
のバグ	-349
の文脈	-350
の総称	-351
の質問	-352
の首都	-353
は日本	-354
まず関	-355
みパラ	-356
もつれ	-357
る知的	-358
をコミ	-359
を不要	-360
を利用	-361
を定数	-362
を実現	-363
を提案	-364
を検索	-365
ァイル	-366
ェクト	-367
クチャ	-368
コンピ	-369
タと活	-370
ネット	-371
プロジ	-372
ベース	-373
ページ	-374
メイン	-375
メモリ	-376
モデル	-377
中央区	-378
乗算器	-379
代田区	-380
加減算	-381
勾配降	-382
大規模	-383
工知能	-384
心都市	-385
次世代	-386
現在の	-387
省電力	-388
Memo	-389
argo	-390
bash	-391
cial	-392
comm	-393
ence	-394
iled	-395
loat	-396
lone	-397
ning	-398
ompt	-399
ruct	-400
self	-401
targ	-402
tifi	-403
▁Bit	-404
▁Goo	-405
▁git	-406
▁テスト	-407
いつでも	-408
いでしょ	-409
から成る	-410
してきた	-411
してもよ	-412
して修正	-413
して発展	-414
しました	-415
するため	-416
せと量子	-417
って非線	-418
で学習し	-419
にサプラ	-420
のみで超	-421
の出来事	-422
の特別区	-423
は推論時	-424
は重みを	-425
るニュー	-426
をオンラ	-427
を基盤と	-428
アーキテ	-429
イズ誤差	-430
システム	-431
タは量子	-432
ワークは	-433
並列計算	-434
値に制約	-435
力学の重	-436
千代田区	-437
変更内容	-438
多層の重	-439
形な関数	-440
性化関数	-441
文化の中	-442
港区など	-443
▁	-444
e	-445
t	-446
i	-447
r	-448
n	-449
s	-450
a	-451
o	-452
u	-453
し	-454
の	-455
m	-456
を	-457
l	-458
。	-459
/	-460
、	-461
:	-462
d	-463
g	-464
で	-465
ー	-466
c	-467
p	-468
る	-469
'	-470
-	-471
.	-472
I	-473
に	-474
は	-475
(	-476
)	-477
x	-478
て	-479
&	-480
f	-481
い	-482
う	-483
す	-484
と	-485
1	-486
A	-487
N	-488
h	-489
v	-490
あ	-491
ま	-492
算	-493
,	-494
3	-495
M	-496
b	-497
j	-498
y	-499
が	-500
こ	-501
た	-502
な	-503
イ	-504
コ	-505
ト	-506
ラ	-507
ン	-508
区	-509
0	-510
2	-511
=	-512
L	-513
T	-514
_	-515
w	-516
ご	-517
み	-518
も	-519
よ	-520
ク	-521
ス	-522
テ	-523
メ	-524
ル	-525
子	-526
学	-527
数	-528
機	-529
計	-530
重	-531
量	-532
関	-533
k	-534
q	-535
お	-536
か	-537
く	-538
け	-539
さ	-540
ざ	-541
だ	-542
ち	-543
つ	-544
ら	-545
り	-546
ん	-547
ジ	-548
タ	-549
ッ	-550
ド	-551
プ	-552
モ	-553
ュ	-554
・	-555
不	-556
中	-557
代	-558
処	-559
力	-560
化	-561
文	-562
日	-563
査	-564
正	-565
現	-566
理	-567
知	-568
習	-569
行	-570
言	-571
語	-572
調	-573
超	-574
都	-575
!	-576
*	-577
+	-578
4	-579
5	-580
8	-581
?	-582
B	-583
F	-584
G	-585
P	-586
{	-587
|	-588
}	-589
き	-590
じ	-591
ず	-592
せ	-593
っ	-594
ど	-595
ね	-596
め	-597
ょ	-598
れ	-599
ろ	-600
わ	-601
ァ	-602
ア	-603
ェ	-604
オ	-605
キ	-606
グ	-607
サ	-608
ザ	-609
シ	-610
ズ	-611
チ	-612
デ	-613
ニ	-614
ネ	-615
バ	-616
パ	-617
ピ	-618
フ	-619
ベ	-620
ペ	-621
ミ	-622
ム	-623
ャ	-624
ユ	-625
リ	-626
ロ	-627
ワ	-628
下	-629
世	-630
並	-631
乗	-632
事	-633
京	-634
人	-635
今	-636
付	-637
似	-638
修	-639
値	-640
内	-641
出	-642
列	-643
別	-644
利	-645
制	-646
加	-647
勾	-648
千	-649
合	-650
問	-651
器	-652
在	-653
基	-654
報	-655
変	-656
多	-657
大	-658
央	-659
定	-660
実	-661
容	-662
展	-663
層	-664
工	-665
差	-666
市	-667
常	-668
形	-669
心	-670
性	-671
情	-672
憶	-673
成	-674
推	-675
提	-676
政	-677
明	-678
時	-679
更	-680
本	-681
来	-682
東	-683
案	-684
械	-685
検	-686
模	-687
次	-688
治	-689
法	-690
活	-691
済	-692
減	-693
港	-694
点	-695
無	-696
然	-697
特	-698
用	-699
田	-700
申	-701
発	-702
的	-703
盤	-704
省	-705
称	-706
約	-707
索	-708
経	-709
総	-710
線	-711
能	-712
脈	-713
自	-714
英	-715
要	-716
規	-717
記	-718
誤	-719
論	-720
質	-721
近	-722
通	-723
連	-724
過	-725
配	-726
降	-727
限	-728
電	-729
非	-730
首	-731
